<unk>	0
<s>	0
</s>	0
<SEP>	0
<CLS>	0
\n	0
\t	0
\r	0
0	0
1	0
2	0
3	0
4	0
5	0
6	0
7	0
8	0
9	0
\uff10	0
\uff11	0
\uff12	0
\uff13	0
\uff14	0
\uff15	0
\uff16	0
\uff17	0
\uff18	0
\uff19	0
\uff0c	0
\u3002	0
\uff01	0
\uff1f	0
\u3001	0
\uff1a	0
\uffe5	0
.	0
!	0
?	0
\u300a	0
\u300b	0
\u3010	0
\u3011	0
\u300e	0
\u300f	0
```	0
<!--	0
-->	0
---	0
<!DOCTYPE>	0
\uff1b	0
\uff0e	0
\uff1d	0
\uff1c	0
\uff1e	0
\uff0d	0
\uff0b	0
\uff05	0
\u203c	0
\u32a3	0
\uff0f	0
\uff5c	0
[商品]	0
[图]	0
[视频]	0
[链接]	0
~	0
\uff5e	0
<reserved_0>	0
<reserved_1>	0
<reserved_2>	0
<reserved_3>	0
<reserved_4>	0
<reserved_5>	0
<reserved_6>	0
<reserved_7>	0
<reserved_8>	0
<reserved_9>	0
<reserved_10>	0
<reserved_11>	0
<reserved_12>	0
<reserved_13>	0
<reserved_14>	0
<reserved_15>	0
<reserved_16>	0
<reserved_17>	0
<reserved_18>	0
<reserved_19>	0
<0x00>	0
<0x01>	0
<0x02>	0
<0x03>	0
<0x04>	0
<0x05>	0
<0x06>	0
<0x07>	0
<0x08>	0
<0x09>	0
<0x0A>	0
<0x0B>	0
<0x0C>	0
<0x0D>	0
<0x0E>	0
<0x0F>	0
<0x10>	0
<0x11>	0
<0x12>	0
<0x13>	0
<0x14>	0
<0x15>	0
<0x16>	0
<0x17>	0
<0x18>	0
<0x19>	0
<0x1A>	0
<0x1B>	0
<0x1C>	0
<0x1D>	0
<0x1E>	0
<0x1F>	0
<0x20>	0
<0x21>	0
<0x22>	0
<0x23>	0
<0x24>	0
<0x25>	0
<0x26>	0
<0x27>	0
<0x28>	0
<0x29>	0
<0x2A>	0
<0x2B>	0
<0x2C>	0
<0x2D>	0
<0x2E>	0
<0x2F>	0
<0x30>	0
<0x31>	0
<0x32>	0
<0x33>	0
<0x34>	0
<0x35>	0
<0x36>	0
<0x37>	0
<0x38>	0
<0x39>	0
<0x3A>	0
<0x3B>	0
<0x3C>	0
<0x3D>	0
<0x3E>	0
<0x3F>	0
<0x40>	0
<0x41>	0
<0x42>	0
<0x43>	0
<0x44>	0
<0x45>	0
<0x46>	0
<0x47>	0
<0x48>	0
<0x49>	0
<0x4A>	0
<0x4B>	0
<0x4C>	0
<0x4D>	0
<0x4E>	0
<0x4F>	0
<0x50>	0
<0x51>	0
<0x52>	0
<0x53>	0
<0x54>	0
<0x55>	0
<0x56>	0
<0x57>	0
<0x58>	0
<0x59>	0
<0x5A>	0
<0x5B>	0
<0x5C>	0
<0x5D>	0
<0x5E>	0
<0x5F>	0
<0x60>	0
<0x61>	0
<0x62>	0
<0x63>	0
<0x64>	0
<0x65>	0
<0x66>	0
<0x67>	0
<0x68>	0
<0x69>	0
<0x6A>	0
<0x6B>	0
<0x6C>	0
<0x6D>	0
<0x6E>	0
<0x6F>	0
<0x70>	0
<0x71>	0
<0x72>	0
<0x73>	0
<0x74>	0
<0x75>	0
<0x76>	0
<0x77>	0
<0x78>	0
<0x79>	0
<0x7A>	0
<0x7B>	0
<0x7C>	0
<0x7D>	0
<0x7E>	0
<0x7F>	0
<0x80>	0
<0x81>	0
<0x82>	0
<0x83>	0
<0x84>	0
<0x85>	0
<0x86>	0
<0x87>	0
<0x88>	0
<0x89>	0
<0x8A>	0
<0x8B>	0
<0x8C>	0
<0x8D>	0
<0x8E>	0
<0x8F>	0
<0x90>	0
<0x91>	0
<0x92>	0
<0x93>	0
<0x94>	0
<0x95>	0
<0x96>	0
<0x97>	0
<0x98>	0
<0x99>	0
<0x9A>	0
<0x9B>	0
<0x9C>	0
<0x9D>	0
<0x9E>	0
<0x9F>	0
<0xA0>	0
<0xA1>	0
<0xA2>	0
<0xA3>	0
<0xA4>	0
<0xA5>	0
<0xA6>	0
<0xA7>	0
<0xA8>	0
<0xA9>	0
<0xAA>	0
<0xAB>	0
<0xAC>	0
<0xAD>	0
<0xAE>	0
<0xAF>	0
<0xB0>	0
<0xB1>	0
<0xB2>	0
<0xB3>	0
<0xB4>	0
<0xB5>	0
<0xB6>	0
<0xB7>	0
<0xB8>	0
<0xB9>	0
<0xBA>	0
<0xBB>	0
<0xBC>	0
<0xBD>	0
<0xBE>	0
<0xBF>	0
<0xC0>	0
<0xC1>	0
<0xC2>	0
<0xC3>	0
<0xC4>	0
<0xC5>	0
<0xC6>	0
<0xC7>	0
<0xC8>	0
<0xC9>	0
<0xCA>	0
<0xCB>	0
<0xCC>	0
<0xCD>	0
<0xCE>	0
<0xCF>	0
<0xD0>	0
<0xD1>	0
<0xD2>	0
<0xD3>	0
<0xD4>	0
<0xD5>	0
<0xD6>	0
<0xD7>	0
<0xD8>	0
<0xD9>	0
<0xDA>	0
<0xDB>	0
<0xDC>	0
<0xDD>	0
<0xDE>	0
<0xDF>	0
<0xE0>	0
<0xE1>	0
<0xE2>	0
<0xE3>	0
<0xE4>	0
<0xE5>	0
<0xE6>	0
<0xE7>	0
<0xE8>	0
<0xE9>	0
<0xEA>	0
<0xEB>	0
<0xEC>	0
<0xED>	0
<0xEE>	0
<0xEF>	0
<0xF0>	0
<0xF1>	0
<0xF2>	0
<0xF3>	0
<0xF4>	0
<0xF5>	0
<0xF6>	0
<0xF7>	0
<0xF8>	0
<0xF9>	0
<0xFA>	0
<0xFB>	0
<0xFC>	0
<0xFD>	0
<0xFE>	0
<0xFF>	0
▁	-1.89192
,	-3.68423
▁the	-3.9125
，	-4.0815
s	-4.1846
▁of	-4.45622
▁and	-4.49408
▁to	-4.52331
▁a	-4.77879
▁in	-4.87942
-	-5.05469
的	-5.13856
_	-5.22145
。	-5.27311
▁is	-5.36418
▁that	-5.4865
▁for	-5.53827
’	-5.66181
)	-5.66777
、	-5.69254
:	-5.72086
▁I	-5.78373
▁with	-5.86673
▁on	-5.88091
▁(	-5.89884
t	-5.94861
▁you	-5.96288
▁The	-5.96432
▁it	-5.98877
/	-6.00775
'	-6.02248
▁as	-6.08237
▁be	-6.0876
▁was	-6.10314
▁are	-6.13669
ing	-6.20425
(	-6.26308
▁by	-6.28273
d	-6.29502
;	-6.33544
ed	-6.35564
▁at	-6.36834
▁from	-6.37595
▁or	-6.37875
x	-6.37995
▁have	-6.39832
▁this	-6.43898
在	-6.48726
”	-6.50955
：	-6.52038
▁not	-6.52147
▁an	-6.5509
▁can	-6.62648
和	-6.66918
"	-6.68252
▁will	-6.73733
a	-6.74052
了	-6.75388
▁“	-6.75533
▁your	-6.75669
e	-6.75799
▁we	-6.75895
m	-6.80218
▁has	-6.80518
=	-6.86742
re	-6.87203
▁he	-6.89294
是	-6.89988
▁his	-6.90491
▁their	-6.92304
▁but	-6.93172
▁they	-6.94021
{	-6.95079
▁all	-6.95555
i	-6.97896
▁"	-6.97976
▁A	-6.9832
▁which	-6.9934
y	-7.02257
▁In	-7.04101
▁more	-7.05483
▁one	-7.05669
er	-7.07499
！	-7.07891
S	-7.08604
ly	-7.10283
n	-7.11827
▁about	-7.13428
c	-7.14797
f	-7.15274
}	-7.15352
有	-7.1669
▁*	-7.17792
▁It	-7.18267
▁who	-7.18547
▁also	-7.18839
▁if	-7.21397
▁were	-7.22157
“	-7.2329
▁my	-7.24344
com	-7.25907
不	-7.26721
中	-7.2678
▁had	-7.27083
in	-7.27746
▁so	-7.29348
▁our	-7.29646
▁time	-7.29871
b	-7.30956
▁out	-7.31711
▁been	-7.31743
r	-7.31787
哦	-7.31934
▁=	-7.33552
▁do	-7.36211
▁other	-7.36564
为	-7.36882
▁亲	-7.37485
▁her	-7.38363
▁up	-7.38378
？	-7.39875
▁This	-7.39898
▁when	-7.40988
▁\	-7.42269
▁there	-7.42303
al	-7.42715
（	-7.43279
上	-7.4353
▁what	-7.43969
▁people	-7.45
年	-7.46527
C	-7.46782
▁would	-7.46898
A	-7.47408
h	-7.47909
%	-7.49576
]	-7.50476
▁$	-7.50931
\	-7.51447
人	-7.5148
);	-7.51688
▁like	-7.52921
对	-7.55017
://	-7.55244
一	-7.55614
▁them	-7.56229
o	-7.56953
与	-7.57062
▁He	-7.57547
▁any	-7.58038
▁than	-7.58077
▁some	-7.58694
我	-7.58984
等	-7.59317
▁into	-7.59476
大	-7.60402
p	-7.61415
▁its	-7.61663
）	-7.62024
▁We	-7.62313
▁new	-7.63006
k	-7.63467
亲	-7.63866
▁me	-7.64492
▁first	-7.64667
>	-7.65612
id	-7.65668
月	-7.66456
g	-7.66738
th	-7.67576
D	-7.6761
es	-7.67733
▁may	-7.68609
I	-7.68772
▁over	-7.6925
[	-7.703
▁no	-7.70384
▁said	-7.71065
▁just	-7.71392
▁#	-7.71531
▁–	-7.71991
可以	-7.72316
▁she	-7.73868
▁only	-7.74737
元	-7.75325
▁get	-7.76102
▁how	-7.76553
&	-7.76857
；	-7.76922
后	-7.78613
▁work	-7.78768
or	-7.79204
到	-7.79307
▁these	-7.7936
l	-7.80845
/:	-7.81015
▁most	-7.81388
▁&	-7.81673
trade	-7.81877
▁two	-7.81896
item	-7.82212
小	-7.82697
▁{	-7.8305
会	-7.84238
ve	-7.84311
▁make	-7.84486
日	-7.84494
▁years	-7.84833
$	-7.85443
B	-7.86581
下	-7.86875
T	-7.88606
▁many	-7.89468
▁such	-7.89592
▁You	-7.90246
我们	-7.90528
▁use	-7.90594
▁where	-7.91061
▁If	-7.91291
▁well	-7.91685
),	-7.91698
您	-7.92744
v	-7.92996
u	-7.93084
▁after	-7.93682
时	-7.94487
呢	-7.95433
好	-7.95816
就	-7.9642
将	-7.96816
▁know	-7.96998
▁And	-7.97268
也	-7.97485
▁through	-7.97763
F	-7.98325
▁way	-7.98654
->	-7.99488
▁then	-7.99747
▁because	-8.00007
▁could	-8.00074
+	-8.01088
▁S	-8.02043
▁should	-8.02347
▁very	-8.02693
▁need	-8.02751
E	-8.03043
▁him	-8.04992
detail	-8.05769
用	-8.06231
▁us	-8.07334
w	-8.0742
▁year	-8.07642
以	-8.08932
G	-8.09266
▁|	-8.09431
M	-8.09672
水	-8.10656
要	-8.10885
▁life	-8.11083
▁being	-8.11267
▁those	-8.11353
htm	-8.11435
L	-8.1156
▁see	-8.12132
P	-8.12364
en	-8.12368
▁even	-8.12708
可	-8.12783
▁But	-8.12869
▁亲亲	-8.1289
▁now	-8.13125
高	-8.13292
你	-8.1366
▁back	-8.1435
ll	-8.14964
▁https	-8.15055
多	-8.16386
▁For	-8.16578
发	-8.16591
来	-8.16796
▁<	-8.16867
能	-8.17345
▁}	-8.17388
▁much	-8.17949
on	-8.17952
to	-8.18024
H	-8.18515
▁good	-8.18893
taobao	-8.18979
公司	-8.19452
地	-8.19565
▁before	-8.20108
▁don	-8.20335
▁world	-8.205
▁made	-8.20707
▁help	-8.20896
子	-8.20978
吗	-8.21167
▁want	-8.21298
出	-8.21595
_********	-8.22264
bi	-8.22519
都	-8.22584
点	-8.22724
ers	-8.22964
z	-8.22972
*	-8.23136
新	-8.23287
▁//	-8.23307
进行	-8.23889
从	-8.23931
able	-8.24664
▁As	-8.24872
产品	-8.25152
▁used	-8.2522
▁take	-8.25322
R	-8.25325
**	-8.25524
▁between	-8.26752
及	-8.27048
▁think	-8.27096
▁under	-8.27114
▁B	-8.27621
▁New	-8.28484
X	-8.28576
ation	-8.28815
而	-8.2882
性	-8.28931
▁right	-8.29035
K	-8.29155
▁information	-8.30161
】	-8.30253
▁So	-8.30276
一个	-8.30411
▁There	-8.31726
▁P	-8.31783
▁C	-8.32008
《	-8.32588
▁same	-8.32674
an	-8.32781
▁day	-8.33338
▁E	-8.33528
这	-8.33689
▁while	-8.33761
▁part	-8.33774
V	-8.33879
is	-8.34266
号	-8.34359
的哦	-8.34758
说	-8.3489
区	-8.3493
▁To	-8.34979
▁home	-8.35139
三	-8.35442
▁She	-8.35466
▁long	-8.35703
▁They	-8.35845
▁best	-8.36082
▁go	-8.36288
▁here	-8.36583
并	-8.36791
▁U	-8.37352
ity	-8.37891
分	-8.38019
▁own	-8.38042
》	-8.38508
车	-8.38538
man	-8.38723
没有	-8.38738
个	-8.38805
于	-8.38993
▁both	-8.39287
机	-8.39768
这个	-8.3989
市	-8.39916
▁different	-8.39985
N	-8.40062
▁each	-8.40193
j	-8.40425
天	-8.40541
或	-8.41315
被	-8.41941
▁de	-8.42978
us	-8.4355
▁find	-8.43677
▁going	-8.43949
▁data	-8.43995
着	-8.44111
▁business	-8.44113
▁still	-8.4416
▁did	-8.44237
服务	-8.44428
▁[	-8.44504
需要	-8.45032
使用	-8.45108
▁last	-8.45204
st	-8.45237
▁during	-8.45685
▁number	-8.45982
前	-8.4668
▁great	-8.46923
▁down	-8.47126
…	-8.47674
他	-8.47833
::	-8.47904
▁*/	-8.48145
还	-8.48653
无	-8.48972
活动	-8.49039
家	-8.49245
▁un	-8.49383
▁three	-8.49787
内	-8.50205
,”	-8.50576
▁must	-8.50735
长	-8.50888
▁things	-8.51019
▁set	-8.5121
但	-8.51241
▁around	-8.51681
▁really	-8.5171
the	-8.52057
▁What	-8.52064
up	-8.5221
力	-8.52663
▁place	-8.52808
▁M	-8.52932
it	-8.5296
▁public	-8.52965
—	-8.53306
▁including	-8.53642
▁high	-8.54173
<	-8.54222
企业	-8.5429
title	-8.54356
ion	-8.55117
中国	-8.56329
▁When	-8.5635
end	-8.56445
ic	-8.56788
▁state	-8.57264
开	-8.5802
The	-8.58033
–	-8.58349
工作	-8.58492
请	-8.58638
W	-8.58651
▁every	-8.58704
通过	-8.58834
时间	-8.59061
▁using	-8.59239
▁Re	-8.59272
▁does	-8.59296
的呢	-8.59511
if	-8.59586
▁God	-8.60022
向	-8.60113
▁case	-8.60197
▁without	-8.60462
▁T	-8.60649
▁system	-8.607
▁important	-8.60778
▁family	-8.60861
and	-8.60977
▁return	-8.61012
▁University	-8.61908
▁found	-8.62296
去	-8.62635
其	-8.6272
▁company	-8.6288
吧	-8.63575
":"********","	-8.63993
▁come	-8.64349
心	-8.64429
="	-8.6503
▁since	-8.65844
都是	-8.66471
里	-8.66491
▁F	-8.66512
看	-8.66539
le	-8.67814
▁something	-8.67834
▁G	-8.67855
▁might	-8.68359
让	-8.68829
▁That	-8.69139
▁‘	-8.69159
化	-8.69298
▁few	-8.69409
▁another	-8.69426
之	-8.69445
▁against	-8.69465
过	-8.69794
int	-8.69848
▁say	-8.70161
头	-8.70379
手	-8.70517
▁On	-8.70545
▁R	-8.70668
▁support	-8.70675
q	-8.70834
就是	-8.70858
本	-8.7092
▁off	-8.7108
▁always	-8.71207
add	-8.71364
▁end	-8.71374
▁D	-8.71603
▁team	-8.71967
给	-8.72127
define	-8.72151
":"	-8.72423
再	-8.72481
做	-8.72656
管理	-8.7268
J	-8.72787
▁health	-8.72938
更	-8.7309
^	-8.73235
技术	-8.73461
▁too	-8.73617
▁American	-8.73718
如果	-8.73849
U	-8.74222
▁look	-8.74454
":"********	-8.74682
名	-8.74784
自	-8.74852
▁{"	-8.74876
▁am	-8.74879
线	-8.75215
金	-8.75291
选择	-8.75565
O	-8.75625
▁little	-8.75993
▁love	-8.76044
▁school	-8.76112
▁No	-8.76121
▁never	-8.76294
花	-8.76376
▁better	-8.7641
路	-8.77127
风	-8.77181
把	-8.77346
▁children	-8.77482
二	-8.77643
▁experience	-8.77702
送	-8.77738
ment	-8.78105
co	-8.78193
▁lot	-8.78965
现在	-8.79128
opType	-8.79129
bizType	-8.79347
zUuid	-8.7935
全	-8.79512
所	-8.79625
自己	-8.7965
单	-8.80007
▁L	-8.80024
万	-8.80296
▁order	-8.80549
]"}	-8.80575
已经	-8.80589
▁name	-8.80615
as	-8.80617
▁N	-8.80639
":"[	-8.80658
美	-8.80777
▁person	-8.80857
▁book	-8.8088
▁All	-8.81007
设计	-8.81141
【	-8.8125
▁process	-8.81422
ist	-8.81469
ive	-8.81575
Y	-8.81693
款	-8.82236
外	-8.82287
信息	-8.82564
如	-8.82704
▁change	-8.82866
▁United	-8.8291
加	-8.83503
系统	-8.83549
板	-8.83639
海	-8.837
▁How	-8.84017
打	-8.84078
_{	-8.84313
▁next	-8.8434
▁services	-8.84487
▁provide	-8.84973
网	-8.84994
▁within	-8.85113
_********","	-8.85251
请您核对订单信息	-8.85311
山	-8.85373
量	-8.85616
行	-8.85669
面	-8.85806
得	-8.85887
▁p	-8.86024
▁care	-8.86047
问题	-8.86079
▁However	-8.8608
na	-8.8628
▁country	-8.86353
张	-8.86413
ne	-8.86453
|	-8.86592
▁/*	-8.86687
▁service	-8.86712
由	-8.8673
","	-8.87066
哈	-8.87066
很	-8.87108
生	-8.8722
at	-8.87223
https	-8.87697
▁women	-8.87785
▁class	-8.87823
▁working	-8.88025
▁available	-8.88205
▁free	-8.88299
▁show	-8.88356
age	-8.88368
el	-8.8844
▁K	-8.88514
▁@	-8.88595
ary	-8.88623
买	-8.88641
▁students	-8.88708
市场	-8.88826
▁At	-8.89151
▁water	-8.89571
提供	-8.89657
ness	-8.89847
ia	-8.89923
▁second	-8.90045
",	-8.90057
管	-8.90163
▁government	-8.90173
亲亲	-8.90314
▁give	-8.90434
比	-8.90477
处理	-8.90528
▁point	-8.90934
▁—	-8.90935
ent	-8.91012
已	-8.91322
最	-8.91546
--	-8.91576
▁research	-8.91864
该	-8.91866
▁W	-8.92004
▁local	-8.92244
▁O	-8.92353
国	-8.92389
ch	-8.92471
▁group	-8.92486
▁St	-8.92543
重	-8.92593
▁law	-8.92616
***********	-8.92706
▁following	-8.92793
▁often	-8.92873
Q	-8.92929
▁game	-8.92988
王	-8.93062
▁One	-8.9308
▁$\	-8.93242
get	-8.93356
▁These	-8.93506
式	-8.93557
一下	-8.93661
▁start	-8.94063
成	-8.94179
部	-8.94231
time	-8.94279
▁sure	-8.94285
者	-8.94305
no	-8.94396
son	-8.94503
()	-8.94721
快递	-8.94807
气	-8.94901
▁social	-8.94933
▁small	-8.95008
▁H	-8.95078
de	-8.95295
▁again	-8.95638
am	-8.95785
项目	-8.95912
▁money	-8.96136
ma	-8.96149
又	-8.96338
▁By	-8.96482
▁days	-8.96735
▁development	-8.96836
▁May	-8.9691
▁per	-8.97297
还是	-8.97326
带	-8.97352
▁community	-8.97439
Z	-8.97703
▁power	-8.98238
ry	-8.98541
▁become	-8.9862
ton	-8.98712
▁full	-8.98891
光	-8.99073
ism	-8.9924
两	-8.99359
▁called	-8.99514
▁able	-8.99818
▁thing	-9.00008
▁value	-9.00029
▁got	-9.00043
▁My	-9.00087
set	-9.00313
▁After	-9.00583
▁non	-9.00613
▁With	-9.00699
▁million	-9.01079
设备	-9.01091
▁why	-9.01155
学	-9.01185
▁program	-9.01202
▁real	-9.01385
ian	-9.01391
以及	-9.01505
▁put	-9.01587
▁several	-9.0167
起	-9.01873
▁feel	-9.0195
ant	-9.02254
▁States	-9.02418
那	-9.02609
▁read	-9.02702
▁open	-9.02809
因为	-9.02842
▁having	-9.02856
▁until	-9.02857
▁says	-9.02988
line	-9.0303
▁man	-9.0314
▁online	-9.03148
文	-9.03263
▁void	-9.03319
▁course	-9.03347
▁area	-9.03795
▁making	-9.0385
要求	-9.03889
也是	-9.04
但是	-9.04021
im	-9.04057
,"	-9.042
▁possible	-9.045
out	-9.04537
▁fact	-9.04943
▁post	-9.04987
当	-9.04994
▁const	-9.05231
或者	-9.05316
▁keep	-9.05318
▁means	-9.05327
满	-9.05342
▁known	-9.05344
应	-9.05412
价格	-9.0545
器	-9.05582
双	-9.05617
▁market	-9.05756
道	-9.05864
所以	-9.05896
门	-9.05897
至	-9.059
油	-9.06222
先	-9.06239
发展	-9.06428
ar	-9.0656
图	-9.06713
▁An	-9.06812
▁example	-9.06993
ty	-9.07204
▁away	-9.07459
根据	-9.0771
口	-9.07907
▁live	-9.08001
四	-9.08084
il	-9.08095
	-9.08137
▁today	-9.08279
华	-9.08565
入	-9.0867
电	-9.08752
安全	-9.08774
▁J	-9.0882
法	-9.09339
安	-9.09369
体	-9.09375
位	-9.09469
▁National	-9.09475
对于	-9.09545
▁play	-9.09675
▁Co	-9.09831
件	-9.09832
▁story	-9.09843
▁came	-9.09934
度	-9.1
▁given	-9.10064
un	-9.10296
ate	-9.10756
发货	-9.11158
▁four	-9.11169
▁De	-9.11281
装	-9.11314
▁Dr	-9.11326
▁others	-9.11375
处	-9.1153
one	-9.11563
▁State	-9.11674
▁future	-9.11718
卡	-9.11738
www	-9.11801
▁based	-9.11995
▁His	-9.1202
▁together	-9.12035
品牌	-9.12041
五	-9.1228
▁top	-9.12446
▁Do	-9.12449
能够	-9.12458
型	-9.12481
mo	-9.12486
▁study	-9.12577
▁int	-9.12606
▁later	-9.12916
▁type	-9.12925
▁large	-9.13018
▁done	-9.13099
游戏	-9.13107
ID	-9.13193
▁left	-9.13331
▁past	-9.13642
▁human	-9.13722
书	-9.13807
ine	-9.13906
▁查看订单	-9.13911
平	-9.13927
▁March	-9.14048
热	-9.14066
▁less	-9.14103
▁January	-9.14134
行业	-9.14154
▁didn	-9.14179
想	-9.14221
他们	-9.14498
目前	-9.14609
▁access	-9.14644
ro	-9.14649
▁pre	-9.1477
转	-9.14776
拉	-9.14962
被告	-9.15098
▁hand	-9.15346
▁city	-9.15479
动	-9.15527
▁old	-9.1558
▁already	-9.15618
se	-9.15693
场	-9.15803
▁history	-9.15849
▁times	-9.16231
县	-9.16266
bizOrderId	-9.16327
低	-9.16361
原告	-9.16443
▁car	-9.17004
est	-9.17086
▁result	-9.17117
爱	-9.1725
▁looking	-9.17266
马	-9.17304
▁least	-9.17487
▁US	-9.17532
min	-9.17551
▁film	-9.17881
▁World	-9.17996
▁project	-9.18203
「	-9.18215
▁doing	-9.18249
rs	-9.1833
平台	-9.18393
白	-9.18447
▁York	-9.18463
ting	-9.18524
▁shall	-9.18608
▁line	-9.18735
德	-9.18739
方	-9.18837
▁early	-9.1887
城	-9.1904
正	-9.19103
红	-9.19115
be	-9.19122
include	-9.19167
▁season	-9.19249
▁John	-9.19291
▁+	-9.19325
▁enough	-9.19431
▁else	-9.19446
▁far	-9.19459
▁whether	-9.19544
▁kind	-9.19613
▁week	-9.19629
ling	-9.19641
▁include	-9.19728
▁across	-9.19739
▁June	-9.19742
▁members	-9.19962
▁problem	-9.20041
▁personal	-9.20077
拍	-9.20091
▁**	-9.20095
流	-9.20129
▁level	-9.20157
▁music	-9.20166
通	-9.20227
▁hard	-9.20258
直接	-9.20465
进	-9.20601
。”	-9.20684
怎么	-9.20764
ad	-9.20774
me	-9.20835
色	-9.20846
事	-9.20995
▁though	-9.21043
的话	-9.21099
▁due	-9.21103
▁won	-9.21155
{\	-9.21284
的时候	-9.21401
老	-9.21488
专业	-9.21552
▁took	-9.21639
▁website	-9.21673
所述	-9.2176
明	-9.21959
ous	-9.22015
per	-9.22203
南	-9.22344
非常	-9.22357
她	-9.2239
生产	-9.22554
mm	-9.22683
▁content	-9.22706
▁create	-9.22738
▁body	-9.22742
();	-9.22852
龙	-9.22933
▁ever	-9.22968
ating	-9.23026
李	-9.23053
▁needs	-9.23101
一些	-9.23193
et	-9.23508
▁April	-9.23514
支持	-9.23853
▁co	-9.24167
▁current	-9.24206
less	-9.2431
▁form	-9.24327
▁went	-9.24667
建议	-9.24842
原	-9.24897
定	-9.2495
▁thought	-9.25019
▁once	-9.25072
购买	-9.25115
▁【	-9.25152
▁July	-9.2517
▁December	-9.25189
▁single	-9.25329
▁September	-9.2567
▁men	-9.25962
▁call	-9.25965
▁among	-9.26123
期	-9.26132
中心	-9.26144
用户	-9.26154
一般	-9.26193
▁doesn	-9.26241
作为	-9.26289
▁understand	-9.26297
台	-9.26316
感	-9.26336
▁run	-9.26362
这些	-9.26415
type	-9.26428
▁along	-9.26585
大家	-9.268
▁October	-9.26808
强	-9.26823
▁started	-9.26859
工	-9.2691
("	-9.26912
只	-9.26933
▁self	-9.26991
质量	-9.27056
片	-9.27084
▁child	-9.27578
▁short	-9.276
▁control	-9.27623
@	-9.27773
安装	-9.27823
选	-9.27862
第一	-9.27874
▁While	-9.27913
手机	-9.28059
同时	-9.28081
其他	-9.28145
西	-9.28213
▁side	-9.28302
▁series	-9.28365
特	-9.2842
do	-9.28436
回	-9.28471
▁pay	-9.28542
局	-9.286
包	-9.28632
客户	-9.28635
name	-9.2873
不能	-9.28767
▁believe	-9.28776
什么	-9.28934
▁companies	-9.28955
▁question	-9.2896
镇	-9.29058
▁site	-9.29107
▁let	-9.29108
东	-9.2914
▁August	-9.29293
▁November	-9.29321
内容	-9.29365
▁Some	-9.29632
下单	-9.29637
▁results	-9.29674
ir	-9.29689
之后	-9.29689
▁actually	-9.2977
级	-9.29952
斯	-9.30077
▁true	-9.3015
总	-9.30151
▁好的	-9.3022
da	-9.3023
」	-9.30409
begin	-9.30604
te	-9.30662
没	-9.30673
▁young	-9.30721
▁house	-9.30799
超	-9.30815
▁V	-9.30888
ated	-9.30916
清	-9.31076
li	-9.3117
层	-9.31308
▁La	-9.31507
教育	-9.31624
▁upon	-9.31636
op	-9.31644
还有	-9.31657
ie	-9.31881
▁Our	-9.31921
▁plan	-9.32033
同	-9.3208
of	-9.32124
▁months	-9.32149
使	-9.32163
它	-9.32292
▁media	-9.32313
比较	-9.32317
▁big	-9.3234
▁City	-9.32378
▁dis	-9.32426
▁job	-9.32561
▁industry	-9.32583
主	-9.32675
land	-9.32734
▁comes	-9.32843
▁five	-9.32846
具有	-9.32908
▁seen	-9.32915
▁offer	-9.3299
克	-9.32991
周	-9.33132
/:-	-9.33203
▁event	-9.33383
制	-9.33428
▁food	-9.33817
▁education	-9.33835
按	-9.33859
▁space	-9.33893
价	-9.33902
自己的	-9.3391
os	-9.34106
ta	-9.3413
▁South	-9.34146
▁School	-9.34174
▁special	-9.34223
um	-9.34359
版	-9.34375
费	-9.34444
▁list	-9.34465
石	-9.34573
▁products	-9.34671
</	-9.34784
不同	-9.34856
▁learn	-9.34995
▁||	-9.35001
身	-9.35095
▁role	-9.35184
尔	-9.3519
▁makes	-9.35361
▁energy	-9.35447
米	-9.35549
球	-9.35593
很多	-9.35648
站	-9.35822
year	-9.36001
▁try	-9.36112
▁Your	-9.36209
▁mind	-9.36212
减	-9.36259
各	-9.36368
▁Q	-9.36509
▁Al	-9.36514
▁general	-9.36681
条	-9.36793
▁getting	-9.3683
▁yet	-9.36953
码	-9.36956
这样	-9.36963
店	-9.36966
快	-9.36995
▁addition	-9.37129
▁February	-9.37234
▁career	-9.37297
▁==	-9.37332
经	-9.37388
▁issues	-9.37444
io	-9.37483
数据	-9.37569
队	-9.37648
▁major	-9.37676
ized	-9.37792
▁present	-9.37821
ization	-9.37832
▁/:	-9.37842
ge	-9.37843
云	-9.37846
▁file	-9.37861
申请	-9.37863
我们将尽快为您发出	-9.37898
#	-9.37919
ca	-9.37934
Type	-9.37945
return	-9.38079
人员	-9.38163
您的	-9.38193
▁building	-9.38199
材料	-9.38208
林	-9.38235
不是	-9.38318
We	-9.38433
因	-9.38717
▁design	-9.38747
未	-9.38793
▁above	-9.38875
▁model	-9.38892
list	-9.39
ce	-9.39184
工程	-9.39248
▁head	-9.39252
▁third	-9.39276
科	-9.39301
利	-9.3931
▁key	-9.39319
▁various	-9.39325
▁financial	-9.39484
主要	-9.39515
▁common	-9.39549
▁risk	-9.39561
ef	-9.39625
▁someone	-9.39696
▁night	-9.397
ext	-9.39769
▁heart	-9.3995
商品	-9.39988
火	-9.40014
放	-9.40018
建设	-9.40152
开始	-9.40182
啊	-9.40209
▁period	-9.40219
In	-9.40275
▁told	-9.40357
▁whole	-9.40375
▁rights	-9.40631
▁either	-9.40646
org	-9.40702
学习	-9.40742
▁light	-9.40751
by	-9.40816
ul	-9.40821
今天	-9.41308
相	-9.41356
▁Be	-9.41457
▁patients	-9.41586
关注	-9.41743
▁further	-9.41757
次	-9.41789
▁became	-9.41957
▁cost	-9.41969
▁death	-9.42136
太	-9.42159
▁national	-9.42231
▁received	-9.42272
率	-9.42416
包括	-9.42565
▁function	-9.42634
宝贝	-9.42641
ance	-9.42682
▁report	-9.42728
地址	-9.42858
ful	-9.4291
▁specific	-9.42939
达	-9.43097
采用	-9.43111
▁private	-9.43157
▁idea	-9.4328
▁President	-9.43294
▁main	-9.43304
学生	-9.43353
第二	-9.43404
由于	-9.43457
ies	-9.43618
▁bit	-9.43841
▁quality	-9.43941
国家	-9.43987
go	-9.44013
物	-9.44042
void	-9.44059
方式	-9.44212
old	-9.44284
操作	-9.44299
data	-9.44333
▁clear	-9.44395
▁certain	-9.44406
能力	-9.44512
走	-9.44532
▁required	-9.44537
▁everything	-9.44541
效果	-9.44639
▁亲爱的	-9.44651
▁member	-9.44695
咨询	-9.44736
▁works	-9.44754
▁share	-9.44779
▁America	-9.44868
▁final	-9.44962
付款	-9.44997
▁account	-9.45008
▁reason	-9.45025
订单	-9.45028
标准	-9.45055
生活	-9.451
建	-9.45106
您的订单已经收到	-9.4513
▁War	-9.45218
不要	-9.45226
app	-9.45251
意	-9.45522
品	-9.45591
▁held	-9.45657
▁property	-9.4567
▁Con	-9.45683
str	-9.45713
▁provided	-9.45766
合	-9.45772
lo	-9.45779
料	-9.45794
实现	-9.45891
▁increase	-9.45904
}$	-9.46154
▁face	-9.46207
la	-9.46297
压	-9.46434
ur	-9.46454
▁amount	-9.46533
感谢您对我们的支持	-9.46603
功能	-9.46676
·	-9.46742
▁taken	-9.46817
那么	-9.46869
▁tell	-9.46873
类	-9.46935
优惠	-9.46988
▁interest	-9.47022
▁range	-9.47035
▁low	-9.47057
变	-9.47305
▁likely	-9.47308
▁check	-9.47325
提升	-9.47401
拍下	-9.47442
▁players	-9.4748
▁writing	-9.47514
▁收货地址	-9.47646
了解	-9.47658
▁Mr	-9.47661
控制	-9.47681
▁age	-9.47766
▁tax	-9.47786
收到	-9.47817
中查看订单状态	-9.47835
▁however	-9.47843
黄	-9.47904
▁taking	-9.47958
轮	-9.48013
▁technology	-9.48035
村	-9.48053
眼	-9.48067
ac	-9.48131
sh	-9.4815
▁收货人	-9.4816
▁issue	-9.48162
情况	-9.48249
▁easy	-9.48316
ley	-9.48659
▁mean	-9.48663
▁field	-9.488
ba	-9.48832
这款	-9.48943
">	-9.4897
▁living	-9.49011
__	-9.49176
干	-9.49232
其中	-9.4932
▁pro	-9.49397
可能	-9.49451
▁terms	-9.49551
rate	-9.4957
for	-9.49595
▁close	-9.49602
数	-9.49618
▁anything	-9.49637
▁Now	-9.49651
size	-9.49708
收	-9.49797
ol	-9.49802
▁North	-9.49828
▁especially	-9.49919
ight	-9.50031
已买到的宝贝	-9.50044
网络	-9.50062
▁treatment	-9.50084
员	-9.50111
update	-9.50134
组	-9.50187
环境	-9.5022
▁con	-9.50246
▁Home	-9.50323
吃	-9.50468
ard	-9.5049
based	-9.50535
▁war	-9.50776
é	-9.50785
▁management	-9.50818
▁games	-9.50835
取	-9.5108
len	-9.51087
▁matter	-9.51109
客服	-9.5117
换	-9.51271
给您	-9.51278
▁您也可以随时在	-9.51329
},	-9.51348
▁size	-9.51348
▁video	-9.51349
方面	-9.51357
房	-9.51358
▁almost	-9.51492
way	-9.51504
▁countries	-9.51525
ra	-9.51542
ring	-9.51542
城市	-9.51565
▁half	-9.51624
▁Me	-9.51635
▁test	-9.51646
▁professional	-9.51788
投资	-9.5183
value	-9.51834
希望	-9.5194
而且	-9.51999
穿	-9.52006
▁Mar	-9.52015
货	-9.52116
▁lead	-9.5213
▁County	-9.52137
保	-9.52296
▁action	-9.52359
国际	-9.52455
ni	-9.52465
▁total	-9.52523
▁cannot	-9.5254
▁policy	-9.5261
战	-9.52613
有限公司	-9.52641
▁contact	-9.52679
▁legal	-9.52769
ally	-9.52805
▁training	-9.52855
端	-9.52915
经济	-9.52921
▁continue	-9.52923
▁Not	-9.52928
▁Act	-9.531
实	-9.53129
”，	-9.53144
▁From	-9.5315
跟	-9.53217
▁trying	-9.53278
▁sub	-9.53302
▁medical	-9.53389
ha	-9.53458
▁Health	-9.53541
▁position	-9.53654
们	-9.53665
接	-9.53722
北	-9.53794
▁cases	-9.53804
业	-9.53934
报	-9.53972
一起	-9.53988
▁Here	-9.53997
▁court	-9.54049
}{	-9.54052
▁rather	-9.54089
▁friends	-9.54112
方法	-9.54185
val	-9.54429
▁Center	-9.54453
ted	-9.54557
信	-9.54577
相关	-9.54578
▁higher	-9.5465
▁hours	-9.54757
连接	-9.54777
进入	-9.54779
day	-9.54857
表示	-9.54877
不会	-9.5489
及时	-9.54924
旗舰店	-9.5498
百	-9.5498
江	-9.54993
商	-9.55038
▁individual	-9.55057
▁began	-9.55107
防	-9.55258
▁potential	-9.55308
res	-9.55329
均	-9.55338
中的	-9.55373
▁political	-9.555
这边	-9.55614
推荐	-9.55616
der	-9.55674
▁电话	-9.55765
▁move	-9.55821
▁words	-9.55833
▁events	-9.55862
成为	-9.55901
▁international	-9.55911
ut	-9.55955
保证	-9.56033
发现	-9.5619
如何	-9.56207
第	-9.56326
ize	-9.56422
const	-9.56554
汽车	-9.56572
▁product	-9.56573
▁changes	-9.56607
表	-9.56632
▁House	-9.56642
▁areas	-9.56662
提高	-9.56674
label	-9.56678
▁similar	-9.56792
bo	-9.56849
}\	-9.5709
▁Pro	-9.57117
合作	-9.57143
▁static	-9.57253
▁performance	-9.57286
▁percent	-9.57303
健康	-9.57372
部分	-9.57449
以上	-9.57559
星	-9.57705
▁art	-9.57772
▁office	-9.57909
木	-9.57959
It	-9.58086
▁lives	-9.58154
此	-9.58154
调	-9.58222
▁article	-9.5823
▁Can	-9.58314
影响	-9.58681
▁worked	-9.5869
▁ways	-9.58708
▁asked	-9.58767
▁References	-9.58785
——	-9.58802
nd	-9.58809
pe	-9.58886
联系	-9.589
▁hope	-9.5891
盘	-9.58926
den	-9.58996
ure	-9.59031
字	-9.59047
才	-9.59089
网站	-9.59106
文化	-9.59259
▁security	-9.59293
军	-9.59361
▁ensure	-9.5941
▁X	-9.59465
fe	-9.59486
世界	-9.59563
作	-9.59592
▁nothing	-9.59628
销售	-9.59748
▁Jesus	-9.59786
▁created	-9.59786
▁room	-9.59871
▁International	-9.60005
布	-9.60032
em	-9.60096
▁sense	-9.60097
▁problems	-9.60155
这种	-9.60198
Name	-9.60208
▁subject	-9.60283
))	-9.60449
：***********	-9.60498
ter	-9.60542
▁quite	-9.60642
空	-9.60758
近	-9.60783
▁ago	-9.60871
钱	-9.60874
▁visit	-9.60894
楼	-9.60929
▁questions	-9.60992
完成	-9.61034
▁conditions	-9.61124
女	-9.61128
▁impact	-9.61214
ga	-9.61237
▁air	-9.61244
陈	-9.61276
▁decision	-9.613
▁learning	-9.61356
香	-9.614
▁price	-9.61453
获得	-9.61567
交	-9.61697
▁according	-9.61701
▁particular	-9.61727
▁San	-9.61757
▁success	-9.61837
port	-9.61839
spm	-9.61864
▁consider	-9.61927
出现	-9.6197
▁growth	-9.61987
链接	-9.61995
ti	-9.62062
套	-9.6236
▁written	-9.6247
▁strong	-9.62511
情	-9.6267
▁wanted	-9.62688
▁needed	-9.62759
▁original	-9.6283
每	-9.62839
ri	-9.62902
▁simple	-9.62965
▁Her	-9.62979
宝	-9.63028
au	-9.6305
pa	-9.63094
▁practice	-9.63204
▁China	-9.63223
各种	-9.63243
点击	-9.63286
科技	-9.63299
学校	-9.63342
按照	-9.63579
早	-9.6365
 	-9.63674
▁cause	-9.63701
▁First	-9.63786
因此	-9.63815
ence	-9.63817
写	-9.63854
▁below	-9.63911
▁recent	-9.63912
首	-9.63929
适合	-9.63987
方便	-9.64003
的是	-9.64052
ner	-9.64114
业务	-9.64137
▁economic	-9.64142
▁former	-9.64323
frac	-9.64429
▁mother	-9.6446
▁bring	-9.6457
▁forward	-9.64604
▁probably	-9.64766
▁rest	-9.64818
刘	-9.64828
▁focus	-9.64864
▁Then	-9.64886
▁Of	-9.64948
结构	-9.65005
▁Or	-9.65038
▁coming	-9.65067
▁Court	-9.65372
哟	-9.65383
▁address	-9.65486
▁near	-9.65529
喜欢	-9.65529
▁shows	-9.65542
节	-9.65644
▁English	-9.6572
边	-9.65738
集	-9.6574
▁global	-9.65799
称	-9.65809
ci	-9.65812
▁everyone	-9.65849
▁Department	-9.65872
ite	-9.65874
约	-9.65943
▁view	-9.65969
ative	-9.66193
公	-9.66253
led	-9.66422
▁month	-9.66481
ho	-9.66505
几	-9.66553
乐	-9.66565
▁party	-9.66576
社会	-9.66578
▁effect	-9.66611
▁themselves	-9.66638
back	-9.66696
正在	-9.66702
▁record	-9.66757
▁provides	-9.66777
看到	-9.66778
▁six	-9.66808
体验	-9.66842
六	-9.66866
▁version	-9.66867
深	-9.66873
▁build	-9.6688
源	-9.66881
阳	-9.66932
▁production	-9.66989
use	-9.66999
▁College	-9.6702
▁father	-9.67115
//	-9.6725
▁significant	-9.67279
退	-9.67377
神	-9.6741
），	-9.67657
某	-9.677
受	-9.67811
▁systems	-9.68
为了	-9.68023
领	-9.68109
▁Day	-9.68182
：“	-9.68242
好的	-9.68275
具体	-9.68504
现	-9.68573
▁necessary	-9.68578
病	-9.686
du	-9.68706
民	-9.68799
ish	-9.68913
则	-9.68923
pi	-9.68943
▁outside	-9.68996
连	-9.69008
▁published	-9.69108
▁natural	-9.69248
left	-9.69254
▁choose	-9.69256
智能	-9.69268
▁complete	-9.69278
▁popular	-9.69352
却	-9.69366
▁West	-9.69379
斤	-9.6951
底	-9.69554
需求	-9.69559
▁See	-9.6959
ped	-9.69608
▁software	-9.69613
key	-9.69788
研究	-9.69855
代	-9.69905
且	-9.7
Re	-9.70033
▁More	-9.7006
▁seems	-9.70208
▁turn	-9.70251
省	-9.70256
▁knowledge	-9.70387
▁reading	-9.70392
店铺	-9.70417
red	-9.70427
he	-9.70437
▁opportunity	-9.70454
▁features	-9.70494
▁review	-9.70515
▁meet	-9.70515
▁application	-9.7057
▁longer	-9.70656
所有	-9.70674
联	-9.70675
非	-9.7069
▁India	-9.70712
di	-9.70814
少	-9.70892
▁rate	-9.70899
▁allow	-9.70918
微	-9.71112
个人	-9.71137
▁activities	-9.71154
▁talk	-9.7117
ED	-9.7121
ial	-9.71244
▁offers	-9.71259
运	-9.7136
格	-9.71402
排	-9.71423
▁relationship	-9.71432
▁saw	-9.716
赛	-9.71641
▁difficult	-9.71928
que	-9.72012
▁date	-9.72041
▁yourself	-9.72059
▁staff	-9.72116
all	-9.72156
啦	-9.72222
视频	-9.72238
we	-9.7224
发生	-9.72321
▁currently	-9.72326
关于	-9.72372
ka	-9.72376
▁himself	-9.72407
▁involved	-9.72431
ology	-9.7244
回复	-9.72598
▁itself	-9.72673
▁http	-9.72675
住	-9.72761
河	-9.72769
▁behind	-9.72812
▁deal	-9.72869
真	-9.72884
▁stop	-9.72946
ice	-9.72961
▁lower	-9.72998
mon	-9.7304
更多	-9.73046
孩子	-9.7308
field	-9.73198
▁Law	-9.73217
▁Mo	-9.73223
▁char	-9.7327
▁邮编	-9.73353
▁points	-9.73419
▁Le	-9.73422
▁black	-9.73456
保护	-9.73682
log	-9.73734
▁includes	-9.73775
种	-9.73777
模式	-9.73779
▁included	-9.73809
▁simply	-9.73853
tic	-9.73862
▁states	-9.73975
string	-9.73996
然后	-9.74063
应用	-9.74112
▁word	-9.74122
▁Go	-9.7417
证	-9.74237
一种	-9.7427
ise	-9.74281
▁related	-9.74322
▁student	-9.74359
▁approach	-9.74393
值	-9.74409
左右	-9.74413
街道	-9.74427
▁groups	-9.74483
即	-9.74492
北京	-9.74494
ell	-9.74517
▁THE	-9.74529
皮	-9.74548
▁woman	-9.7456
▁California	-9.74567
▁considered	-9.74568
tmall	-9.74666
的人	-9.7469
检查	-9.7476
con	-9.74763
▁term	-9.74812
▁isn	-9.75076
▁white	-9.75084
▁ask	-9.7513
拥有	-9.75259
▁answer	-9.75372
▁receive	-9.75391
▁programs	-9.75426
▁text	-9.75486
创新	-9.75606
分析	-9.75613
▁released	-9.75863
men	-9.75889
黑	-9.75891
▁Company	-9.75909
▁additional	-9.75945
▁lost	-9.76024
～	-9.76165
▁added	-9.76201
▁average	-9.76371
▁blood	-9.76397
立	-9.76423
标	-9.76464
介绍	-9.76482
}}	-9.76504
▁stay	-9.76519
”。	-9.76547
net	-9.76582
▁played	-9.76615
千	-9.7667
电话	-9.76673
售后	-9.76716
支付	-9.76744
off	-9.76778
▁Man	-9.7681
▁page	-9.76848
▁running	-9.76851
余	-9.76891
▁throughout	-9.76986
之前	-9.76987
ham	-9.76998
远	-9.77177
一次	-9.77182
IP	-9.77219
▁unique	-9.77243
ak	-9.77253
▁Na	-9.77363
的哈	-9.7744
声	-9.77459
▁Park	-9.77479
▁leave	-9.77481
我们的	-9.77523
▁release	-9.77594
;	-9.77698
评价	-9.77707
正常	-9.77726
side	-9.77752
▁follow	-9.77754
▁European	-9.77758
▁parents	-9.7778
大学	-9.77852
古	-9.77936
机构	-9.77942
▁break	-9.78005
▁moment	-9.78009
听	-9.78109
▁NULL	-9.78161
▁Christ	-9.78196
▁environment	-9.78268
ron	-9.78278
责任	-9.78374
code	-9.78408
▁Ca	-9.78477
师	-9.78489
▁soon	-9.785
这是	-9.7853
▁credit	-9.78595
更加	-9.78663
▁bad	-9.78674
ang	-9.78696
▁books	-9.78709
▁network	-9.78739
▁step	-9.78767
▁couple	-9.788
▁section	-9.78915
mp	-9.78915
********	-9.78917
是否	-9.78927
To	-9.79004
▁news	-9.79021
ee	-9.79063
▁fun	-9.79093
ber	-9.79115
▁built	-9.79235
▁__	-9.79242
教	-9.79287
▁usually	-9.79348
罗	-9.79396
cite	-9.795
成功	-9.79657
mu	-9.79667
查	-9.79707
▁evidence	-9.79782
dy	-9.79792
宝宝	-9.79842
bar	-9.79969
两个	-9.80053
▁Most	-9.80082
注意	-9.80105
▁improve	-9.80204
组织	-9.80226
产	-9.80329
显示	-9.80387
即可	-9.80476
基	-9.8048
▁options	-9.80719
上海	-9.80787
▁levels	-9.8082
院	-9.80832
▁late	-9.80927
改	-9.80955
虽然	-9.80973
▁located	-9.81006
ip	-9.81068
来说	-9.8108
cm	-9.81108
");	-9.81118
▁front	-9.81165
物流	-9.81168
应该	-9.81212
▁language	-9.81246
▁user	-9.81259
▁People	-9.81303
▁method	-9.81377
▁write	-9.8139
间	-9.8139
全国	-9.81407
小店	-9.81473
ship	-9.81524
见	-9.81547
资源	-9.81552
▁loss	-9.81565
自然	-9.81598
软件	-9.81759
▁response	-9.8183
▁Black	-9.81873
现场	-9.81874
▁v	-9.81897
▁via	-9.8204
亚	-9.82043
酒	-9.82095
段	-9.82128
ler	-9.82136
▁situation	-9.82236
▁Pa	-9.82248
▁Car	-9.82309
class	-9.82369
▁land	-9.82414
struct	-9.82455
飞	-9.82467
▁source	-9.82471
空间	-9.82516
▁recently	-9.82519
▁degree	-9.82596
帮助	-9.82681
系	-9.8269
RE	-9.82746
脚	-9.8275
半	-9.82751
箱	-9.82762
▁takes	-9.82924
解	-9.82924
tra	-9.8296
像	-9.82962
▁remember	-9.83011
任何	-9.83027
▁disease	-9.83127
地区	-9.83419
▁entire	-9.83461
sa	-9.83503
果	-9.83518
▁instead	-9.83545
pp	-9.83614
难	-9.83655
hi	-9.83705
▁benefits	-9.83744
▁Church	-9.83769
▁material	-9.83772
mi	-9.83823
▁Why	-9.83847
(\	-9.83949
室	-9.83962
▁enjoy	-9.83981
▁board	-9.84
▁customers	-9.84027
▁organization	-9.84028
必须	-9.84034
你们	-9.84136
▁nature	-9.84163
over	-9.84188
▁region	-9.84223
群	-9.84276
ator	-9.84378
开发	-9.84384
/*	-9.84404
只有	-9.8445
▁physical	-9.84571
▁drive	-9.84638
并且	-9.84674
灯	-9.84701
ical	-9.84715
▁anti	-9.84801
▁According	-9.84822
▁Z	-9.84845
认为	-9.84871
▁goal	-9.84902
▁Since	-9.84922
▁Many	-9.85036
▁Mac	-9.85036
找	-9.85208
▁win	-9.85339
ex	-9.85357
po	-9.85364
共	-9.85395
▁David	-9.85401
term	-9.85411
▁Paul	-9.85507
▁El	-9.85549
▁Ra	-9.85572
您订购的宝贝已经启程了	-9.85583
▁resources	-9.85615
孔	-9.85641
▁option	-9.85763
param	-9.85935
执行	-9.85965
String	-9.85982
上的	-9.86025
state	-9.86038
▁British	-9.861
ab	-9.86103
ability	-9.86221
▁Don	-9.86258
▁born	-9.86283
▁meeting	-9.86294
table	-9.86384
▁search	-9.86403
万元	-9.86403
期间	-9.86404
▁church	-9.8641
ities	-9.86411
提	-9.8649
儿	-9.86523
欢迎光临	-9.8654
▁fire	-9.86623
▁anyone	-9.86682
达到	-9.86806
无法	-9.86808
十	-9.86937
▁police	-9.87011
▁myself	-9.87049
▁types	-9.87075
▁expected	-9.87076
客	-9.87085
▁minutes	-9.87088
不断	-9.87088
落	-9.87101
经营	-9.87138
▁travel	-9.87205
极	-9.8721
解决	-9.87226
电子	-9.87235
杆	-9.87243
▁culture	-9.87268
our	-9.87291
les	-9.87354
▁Is	-9.87371
检测	-9.87378
集团	-9.87383
▁•	-9.87421
老师	-9.87459
▁effective	-9.87488
请注意物流状态更新并保持电话畅通	-9.87529
ill	-9.87534
▁insurance	-9.87601
就可以	-9.87614
▁character	-9.87734
施工	-9.8792
▁gave	-9.87948
免费	-9.87991
right	-9.88051
▁Pre	-9.88058
▁Ka	-9.88149
粉	-9.88157
开展	-9.88226
麻烦	-9.88237
▁attention	-9.88307
架	-9.88323
▁General	-9.8834
治疗	-9.88344
▁population	-9.88352
▁science	-9.88387
▁Business	-9.88413
▁purpose	-9.88431
关	-9.88446
▁sound	-9.88477
)$	-9.88478
七	-9.88546
▁News	-9.88567
班	-9.8865
常	-9.88661
医院	-9.88674
▁inter	-9.8878
▁London	-9.88791
美国	-9.88797
▁multiple	-9.88844
理	-9.88895
▁Gu	-9.88928
▁wrong	-9.88974
▁King	-9.88986
▁analysis	-9.88997
青	-9.89017
往	-9.89056
▁Let	-9.89083
冷	-9.89136
▁weeks	-9.89175
存在	-9.89193
剂	-9.89198
▁Canada	-9.89225
▁friend	-9.89236
lin	-9.89299
若	-9.89376
▁playing	-9.89403
▁leading	-9.89412
雨	-9.89416
语	-9.89423
▁designed	-9.89426
▁felt	-9.89478
▁skills	-9.89503
▁Even	-9.89667
▁served	-9.89668
▁variety	-9.89745
▁positive	-9.89757
单号为	-9.89822
▁condition	-9.8989
bin	-9.89899
▁您的收货地址	-9.899
▁costs	-9.89937
▁projects	-9.89939
▁increased	-9.89962
▁paper	-9.89982
new	-9.90002
▁computer	-9.90002
html	-9.90083
▁Lord	-9.90144
传	-9.90202
));	-9.90246
自动	-9.90259
ke	-9.90268
this	-9.90292
▁activity	-9.90328
▁pain	-9.90361
校	-9.90364
ster	-9.90365
▁individuals	-9.90412
反	-9.90461
▁cancer	-9.90471
dev	-9.90498
▁buy	-9.90505
▁saying	-9.90535
Data	-9.90549
▁亲爱哒	-9.90579
增加	-9.90689
发出	-9.90714
▁author	-9.90727
股	-9.90789
起来	-9.90889
一直	-9.90895
▁military	-9.90962
安排	-9.90972
别	-9.91027
配	-9.91058
记得	-9.91186
▁double	-9.91211
备注	-9.91272
▁develop	-9.91329
衣服	-9.91377
退款	-9.91395
波	-9.914
case	-9.91405
男	-9.91432
▁Council	-9.91471
不过	-9.91485
培训	-9.91493
▁investment	-9.9163
我的	-9.91744
fa	-9.91932
洗	-9.91993
原因	-9.92019
▁effects	-9.92025
▁Association	-9.92094
牌	-9.92118
▁associated	-9.92124
▁perfect	-9.92135
lib	-9.92206
▁Group	-9.92247
其实	-9.92249
▁Washington	-9.92462
州	-9.92469
▁studies	-9.92639
▁heard	-9.92733
茶	-9.92744
杨	-9.92747
单位	-9.92913
▁Europe	-9.92913
▁please	-9.92995
▁knew	-9.93022
ST	-9.93085
▁song	-9.93145
▁Po	-9.93192
read	-9.93252
药	-9.93261
▁digital	-9.93336
▁reported	-9.93351
请注意物流查收哦	-9.934
▁brought	-9.93424
钢	-9.93584
银行	-9.93589
谢谢	-9.93591
▁pretty	-9.9364
▁Un	-9.93701
▁ground	-9.93711
▁income	-9.93738
毛	-9.93772
▁path	-9.93778
▁developed	-9.93839
展	-9.93843
团队	-9.93934
成本	-9.93947
合同	-9.94026
直	-9.9403
建筑	-9.94032
差	-9.94063
▁employees	-9.94088
▁whose	-9.94097
▁During	-9.94134
▁worth	-9.94163
▁Ar	-9.94189
水平	-9.94209
▁UK	-9.94234
char	-9.94259
▁multi	-9.94318
▁modern	-9.94322
▁Bo	-9.94334
固定	-9.94365
▁town	-9.94414
▁Board	-9.94433
so	-9.94458
▁previous	-9.94561
补	-9.94616
▁understanding	-9.94652
计划	-9.94712
▁standard	-9.94747
▁Su	-9.94805
▁billion	-9.94833
▁established	-9.94967
下载	-9.95009
can	-9.95021
▁Ho	-9.95031
领取	-9.95051
▁sales	-9.95061
pt	-9.95061
▁album	-9.95074
参加	-9.95074
▁ability	-9.95091
▁etc	-9.95128
▁respect	-9.95155
▁sometimes	-9.95169
▁links	-9.95178
问	-9.9519
▁wife	-9.9522
承担	-9.9526
考	-9.95275
ina	-9.95394
▁federal	-9.95464
▁hear	-9.95506
兴	-9.95533
▁image	-9.95554
▁Trump	-9.95723
▁	-9.95827
▁beginning	-9.95863
▁died	-9.95863
▁/**	-9.95873
page	-9.95897
king	-9.95903
体重	-9.95936
▁successful	-9.9599
gl	-9.95994
▁beautiful	-9.96055
▁Life	-9.96112
ah	-9.96221
▁oil	-9.96259
座	-9.96309
……	-9.96316
价值	-9.96332
▁thinking	-9.96414
系列	-9.96416
▁allows	-9.96425
利用	-9.96436
教学	-9.96451
除	-9.96458
▁quickly	-9.96469
AL	-9.96563
AP	-9.9658
▁require	-9.96589
团	-9.96638
▁named	-9.96671
tro	-9.96688
交易	-9.96769
▁Art	-9.96794
cal	-9.96797
您好	-9.96807
▁grow	-9.96892
▁High	-9.96897
ists	-9.96966
▁director	-9.97028
my	-9.97075
易	-9.97152
▁purchase	-9.97169
▁French	-9.97187
`	-9.97305
▁您好	-9.97342
经过	-9.97374
仓库	-9.97396
▁limited	-9.97396
ping	-9.97457
▁track	-9.97473
画	-9.97489
鱼	-9.97512
AS	-9.97517
速	-9.9753
▁college	-9.97565
****************	-9.97574
▁Posted	-9.97607
^{	-9.97803
];	-9.97868
▁你好	-9.97871
▁decided	-9.97887
ag	-9.97894
tr	-9.97944
▁choice	-9.97954
▁led	-9.9799
ER	-9.97994
本店	-9.98013
▁sent	-9.98092
玩	-9.98118
▁safe	-9.98163
▁described	-9.98198
全部	-9.982
▁wasn	-9.98237
颜色	-9.98289
ual	-9.98321
今年	-9.98373
▁users	-9.98377
▁Although	-9.98404
需	-9.98436
▁society	-9.98454
博	-9.9848
tion	-9.98486
工业	-9.98494
gen	-9.98503
春	-9.98527
bit	-9.98574
园	-9.98608
知识	-9.98632
▁families	-9.98741
参与	-9.98821
equation	-9.98839
条件	-9.9893
▁Inc	-9.98932
▁wide	-9.98945
▁businesses	-9.98957
▁seem	-9.98982
▁towards	-9.98998
▁Research	-9.99032
▁providing	-9.99092
▁marketing	-9.99108
uint	-9.99131
▁road	-9.9914
九	-9.99156
结	-9.99165
ear	-9.9919
完	-9.99283
液	-9.99294
▁president	-9.99353
▁email	-9.99422
▁East	-9.9946
▁wrote	-9.99505
▁inside	-9.99544
IN	-9.9957
▁goes	-9.99583
LE	-9.99668
八	-9.99669
短	-9.99716
▁Post	-9.99724
到了	-9.99778
对这款商品有什么能帮助您的呢	-9.99787
你的	-9.99822
ever	-9.99839
▁complex	-9.99853
▁contract	-9.99854
快速	-9.99858
的问题	-9.99945
pm	-9.99951
最后	-9.99995
修	-10.0002
bb	-10.0003
满足	-10.0008
▁safety	-10.0009
node	-10.0011
关系	-10.0015
包装	-10.0028
▁direct	-10.0028
保持	-10.0038
运动	-10.004
福	-10.0045
alpha	-10.0046
mar	-10.005
ole	-10.0052
预	-10.0054
未来	-10.0065
以下	-10.0068
▁Indian	-10.0071
程	-10.0071
步	-10.0077
▁James	-10.0081
gg	-10.0081
▁stage	-10.0082
OS	-10.0082
ten	-10.0088
服	-10.009
抗	-10.0092
设置	-10.0095
▁eyes	-10.0098
支	-10.0106
▁web	-10.0108
▁fear	-10.0111
想要	-10.0113
创	-10.0116
产业	-10.0118
▁chance	-10.012
▁weight	-10.0121
▁Ro	-10.0121
▁style	-10.0122
▁movie	-10.0126
▁plans	-10.0127
▁stories	-10.0129
▁interesting	-10.0139
▁benefit	-10.014
▁round	-10.0144
ING	-10.0145
eq	-10.0158
▁cells	-10.016
▁En	-10.0161
▁details	-10.0165
▁blog	-10.0165
增	-10.0166
▁kids	-10.0167
▁reduce	-10.017
▁table	-10.0177
特别	-10.0181
▁directly	-10.0183
进一步	-10.0185
▁save	-10.019
据	-10.019
http	-10.019
便	-10.0192
girl	-10.0194
ick	-10.0195
▁ready	-10.0198
▁schools	-10.0199
彩	-10.02
膜	-10.02
han	-10.0201
▁hit	-10.0202
制作	-10.0206
纸	-10.021
在线	-10.0211
You	-10.0215
EN	-10.0222
→	-10.0225
▁screen	-10.0227
剧	-10.023
▁happy	-10.0233
▁sign	-10.0237
推	-10.0242
性能	-10.0243
IT	-10.0245
▁Institute	-10.0247
▁expect	-10.0251
▁Best	-10.0252
▁difference	-10.0253
▁Sa	-10.0256
继续	-10.0256
课	-10.0259
费用	-10.026
实际	-10.0276
▁fall	-10.0276
▁basis	-10.0277
▁morning	-10.0287
块	-10.0293
▁Also	-10.0298
SE	-10.0311
▁notice	-10.0315
▁device	-10.0316
MA	-10.0319
▁Well	-10.0319
包邮	-10.0321
分钟	-10.0325
index	-10.0336
发布	-10.0339
确定	-10.0347
话	-10.0349
卖	-10.0351
▁solution	-10.0354
▁fine	-10.0363
▁Ta	-10.0364
形	-10.0364
link	-10.037
世	-10.0371
▁announced	-10.0373
):	-10.0379
装置	-10.0381
▁request	-10.0388
▁hold	-10.0391
全球	-10.0391
▁values	-10.0392
▁OF	-10.0394
▁clients	-10.0403
▁walk	-10.0403
▁Pi	-10.0405
▁prevent	-10.0409
复	-10.0414
free	-10.0416
才能	-10.0417
▁player	-10.0421
▁agree	-10.0421
▁send	-10.0423
满意	-10.0427
▁app	-10.0427
权	-10.0442
伤	-10.0443
vi	-10.0444
随着	-10.0444
▁tried	-10.0446
土	-10.0446
▁Service	-10.0447
cn	-10.0452
加工	-10.0454
质	-10.0455
Get	-10.0455
▁ex	-10.0462
综合	-10.0463
导致	-10.0466
巴	-10.0467
较	-10.0467
hu	-10.0469
有效	-10.0471
▁moved	-10.0474
铁	-10.048
▁force	-10.0483
▁gas	-10.0486
▁protect	-10.049
Value	-10.0497
ret	-10.0498
微信	-10.05
▁command	-10.0501
▁Ha	-10.0506
过程中	-10.051
叶	-10.0514
轻	-10.0515
▁code	-10.0521
盖	-10.0523
wa	-10.0532
lu	-10.0533
chi	-10.0533
只要	-10.0536
ren	-10.054
▁base	-10.0551
lan	-10.0559
▁capital	-10.056
▁met	-10.056
endif	-10.0563
不仅	-10.0565
得到	-10.0568
游	-10.0568
test	-10.0577
▁cell	-10.0586
试	-10.0586
一样	-10.0587
为您	-10.0588
一点	-10.0589
▁summer	-10.0591
▁customer	-10.0593
▁Street	-10.0593
▁fit	-10.0597
▁reach	-10.0598
▁structure	-10.0602
▁phone	-10.0602
not	-10.0627
mer	-10.0635
▁spent	-10.0636
va	-10.0637
▁Just	-10.0638
▁Public	-10.064
▁Education	-10.0643
})	-10.0656
结果	-10.0656
第三	-10.0657
酸	-10.0659
▁responsible	-10.0661
音	-10.0661
▁Hu	-10.0663
▁compared	-10.0668
ium	-10.0668
und	-10.0678
▁Get	-10.068
ja	-10.0682
▁happen	-10.0687
味	-10.0692
This	-10.0702
map	-10.0702
arg	-10.0703
玩家	-10.0711
项	-10.0718
田	-10.0719
▁band	-10.072
代表	-10.0723
国内	-10.0725
树	-10.0732
ver	-10.0744
SA	-10.0751
▁message	-10.076
打造	-10.076
优势	-10.0763
小时	-10.0764
么	-10.0766
厂	-10.0775
图片	-10.0775
▁alone	-10.0785
ung	-10.0785
rd	-10.0789
CC	-10.079
▁race	-10.08
form	-10.0806
积极	-10.0808
祝您生活愉快	-10.0808
紧	-10.0809
▁store	-10.0813
▁brand	-10.0815
晚	-10.0815
这一	-10.0817
ya	-10.0824
温度	-10.0833
▁pressure	-10.0836
ier	-10.0837
越	-10.0838
▁shown	-10.084
胜	-10.0842
角	-10.0847
▁changed	-10.0847
har	-10.0849
作用	-10.0851
造成	-10.0855
消费	-10.0859
街	-10.0859
PA	-10.0862
整体	-10.087
▁center	-10.0881
▁opportunities	-10.0881
▁highly	-10.0883
▁parts	-10.0887
学院	-10.0894
额	-10.0894
▁Services	-10.0897
▁paid	-10.0898
▁particularly	-10.0905
基本	-10.0906
精	-10.0908
▁watch	-10.0908
▁bar	-10.0909
▁install	-10.0911
ap	-10.0916
▁normal	-10.0922
ana	-10.0924
▁turned	-10.0924
▁growing	-10.0925
file	-10.0929
▁Air	-10.0933
菜	-10.0936
▁hands	-10.0938
▁lack	-10.0943
box	-10.0949
MS	-10.0957
草	-10.0957
也可以	-10.0958
▁act	-10.0959
▁rules	-10.0959
控	-10.0959
超过	-10.0962
▁ideas	-10.0963
▁error	-10.097
贴	-10.0972
丝	-10.0978
▁continued	-10.0979
▁giving	-10.0979
▁brain	-10.0983
ff	-10.0991
普通	-10.0991
风险	-10.0992
▁status	-10.0993
初	-10.1019
阿	-10.1021
▁factors	-10.1023
▁gives	-10.1028
▁workers	-10.103
分享	-10.103
align	-10.1031
PS	-10.1038
兰	-10.1038
▁largest	-10.1039
▁completely	-10.1041
mathcal	-10.1045
▁determine	-10.1046
▁Over	-10.1049
切	-10.1058
▁easily	-10.1058
▁cover	-10.1058
fer	-10.1063
▁&&	-10.1066
，“	-10.1067
▁nearly	-10.1068
▁collection	-10.1072
另外	-10.1079
血	-10.1081
num	-10.1082
保险	-10.1082
压力	-10.1086
▁prior	-10.1089
mail	-10.109
用于	-10.1093
▁statement	-10.1095
▁uint	-10.1099
▁influence	-10.1107
ions	-10.1113
▁Bar	-10.1114
ow	-10.1117
▁false	-10.1124
▁Are	-10.113
升级	-10.1131
born	-10.1132
info	-10.1132
持续	-10.1136
ig	-10.1146
保障	-10.1148
var	-10.1155
▁History	-10.1157
只是	-10.1157
丽	-10.1159
▁commercial	-10.1159
▁beyond	-10.116
都有	-10.1162
ep	-10.1163
▁card	-10.1163
▁TV	-10.1164
身高	-10.1165
▁Women	-10.1167
▁stand	-10.1167
湖	-10.1169
▁super	-10.117
全面	-10.1173
▁century	-10.1175
▁construction	-10.1185
▁communities	-10.119
▁Du	-10.119
患者	-10.1193
▁truth	-10.1194
记者	-10.1195
一定	-10.1197
▁avoid	-10.1201
之间	-10.1201
▁Li	-10.1206
▁reasons	-10.1211
▁passed	-10.1213
佳	-10.1216
优惠券	-10.1217
▁places	-10.1218
ue	-10.1219
mb	-10.122
做好	-10.1222
▁estate	-10.1224
gr	-10.1226
▁note	-10.1231
雷	-10.1235
人们	-10.124
▁location	-10.1243
▁materials	-10.1247
▁allowed	-10.1247
圈	-10.1248
▁foreign	-10.1248
▁title	-10.1252
▁seven	-10.1255
案	-10.1258
▁spend	-10.1258
工艺	-10.1258
经验	-10.126
ey	-10.1261
▁huge	-10.1263
运费	-10.1264
亿元	-10.1265
▁greater	-10.1266
▁plant	-10.1281
▁Director	-10.1283
▁claim	-10.1299
▁color	-10.13
▁Because	-10.1308
▁starting	-10.1308
武	-10.131
雪	-10.131
指	-10.1311
表面	-10.1314
▁Green	-10.1315
人的	-10.1317
▁George	-10.1331
ptr	-10.1332
思	-10.1335
物流状态如下	-10.1336
view	-10.1336
旅游	-10.1337
避免	-10.1338
▁interested	-10.134
▁voice	-10.135
▁German	-10.1351
贵	-10.1367
体育	-10.1371
▁White	-10.1374
▁Government	-10.1381
car	-10.1381
投	-10.1383
吸	-10.1385
▁Robert	-10.1388
▁planning	-10.139
▁active	-10.1393
▁Texas	-10.1396
▁ten	-10.1396
刚	-10.1397
▁Bank	-10.1399
掉	-10.1408
▁therefore	-10.141
！！	-10.1411
退货	-10.1419
衣	-10.142
house	-10.1424
▁Red	-10.1434
▁regular	-10.1435
形成	-10.1436
cc	-10.1441
甚至	-10.1443
▁Read	-10.1448
消费者	-10.145
▁--	-10.1455
ning	-10.1458
结合	-10.1469
银	-10.1472
理解	-10.1474
▁Science	-10.1474
考试	-10.1475
环	-10.1475
MP	-10.1486
尺码	-10.1491
ck	-10.1493
多少	-10.15
point	-10.1509
留	-10.151
▁Ne	-10.1512
温	-10.1512
搭配	-10.1514
▁followed	-10.1515
▁perform	-10.1516
▁goals	-10.1517
▁mental	-10.1517
装修	-10.1519
▁trust	-10.1519
sc	-10.1523
之一	-10.1528
户	-10.153
▁fast	-10.1534
供	-10.1538
ger	-10.1541
sub	-10.1542
▁traditional	-10.1544
一定要	-10.1547
▁requirements	-10.1548
烟	-10.1558
▁Am	-10.1558
▁patient	-10.1564
▁England	-10.1564
izing	-10.1568
▁daily	-10.1568
▁Christian	-10.157
▁extra	-10.1574
重点	-10.1575
棉	-10.1581
ors	-10.1582
her	-10.1589
▁creating	-10.1603
▁Se	-10.1605
除了	-10.1605
景	-10.1612
ph	-10.1613
▁cut	-10.1613
▁species	-10.1618
")	-10.1619
▁France	-10.162
范围	-10.1624
ea	-10.1626
▁Africa	-10.1626
▁efforts	-10.1627
言	-10.163
▁Committee	-10.1638
▁Australia	-10.164
减少	-10.1643
尺寸	-10.1643
▁deep	-10.1645
样	-10.1646
▁organizations	-10.1646
资金	-10.1662
col	-10.1664
ries	-10.1666
▁protection	-10.1666
Id	-10.1668
ide	-10.167
▁looked	-10.1674
▁eye	-10.1682
ud	-10.1683
就会	-10.1684
▁connection	-10.1685
说明	-10.1689
)(	-10.1691
ney	-10.1692
视	-10.1696
▁rates	-10.1698
失	-10.1698
▁tools	-10.1703
▁sites	-10.1704
▁latest	-10.1707
偏	-10.1714
观	-10.1722
▁Di	-10.1732
员工	-10.1734
▁primary	-10.1734
▁River	-10.1735
▁Mi	-10.1741
亿	-10.1744
威	-10.1746
ze	-10.1747
err	-10.1755
区域	-10.1756
▁clean	-10.1759
pos	-10.1763
状态	-10.1765
▁laws	-10.1765
angle	-10.1767
ised	-10.1774
par	-10.1774
▁Other	-10.1774
▁serve	-10.1776
▁effort	-10.1777
▁moving	-10.1778
享受	-10.1786
▁add	-10.1791
▁campaign	-10.1803
▁feeling	-10.1808
tal	-10.1809
▁although	-10.181
▁Qu	-10.1811
欢迎	-10.1811
za	-10.1815
▁mission	-10.1815
▁Will	-10.182
source	-10.1823
袋	-10.1824
▁partner	-10.1827
以后	-10.1828
▁poor	-10.1833
有什么	-10.1834
ations	-10.184
降	-10.1841
▁Ko	-10.1845
ko	-10.1846
▁economy	-10.1847
方案	-10.1849
▁Michael	-10.1853
完全	-10.1854
▁appropriate	-10.1858
▁import	-10.1859
ward	-10.1861
▁teaching	-10.1868
致	-10.1868
整个	-10.187
ps	-10.187
觉得	-10.1874
▁exercise	-10.1881
DA	-10.1882
▁Social	-10.1885
抢	-10.189
well	-10.1891
head	-10.1891
调整	-10.1891
su	-10.1895
冲	-10.1901
see	-10.1903
▁About	-10.1905
胶	-10.1906
▁Once	-10.191
▁copy	-10.1911
▁Program	-10.1912
▁stock	-10.1912
ification	-10.1914
▁happened	-10.1916
算	-10.1921
▁Great	-10.1926
▁feature	-10.1927
▁II	-10.1928
▁basic	-10.193
sum	-10.1933
亮	-10.1937
▁Vi	-10.1938
No	-10.194
牛	-10.1941
(&	-10.1945
","********":"	-10.1946
更新	-10.1946
尼	-10.1947
科学	-10.195
努力	-10.1953
肉	-10.1954
然	-10.1955
▁husband	-10.1955
▁wish	-10.1958
▁platform	-10.1959
▁parties	-10.1959
▁Ma	-10.1962
导	-10.1962
尽快	-10.1963
coupon	-10.1965
简单	-10.1965
这样的	-10.1971
松	-10.1975
朋友	-10.1977
tor	-10.1978
属于	-10.1981
LA	-10.1984
证明	-10.1986
不同的	-10.1988
领域	-10.1989
ong	-10.1994
准备	-10.1996
▁Sunday	-10.1996
▁sea	-10.1998
long	-10.2
apply	-10.2001
▁African	-10.2006
▁climate	-10.2007
宁	-10.2012
xFF	-10.2014
▁produced	-10.2014
带来	-10.2016
/:^_^	-10.2016
营销	-10.2019
▁Office	-10.202
▁agreement	-10.202
▁leaders	-10.2029
共同	-10.2036
加入	-10.2037
▁sort	-10.2041
沙	-10.2041
▁apply	-10.2045
移动	-10.2047
▁talking	-10.2048
奇	-10.2051
▁football	-10.2051
▁door	-10.2052
cl	-10.2052
▁Jo	-10.2055
▁context	-10.2057
▁meaning	-10.2059
任	-10.206
数量	-10.2061
增长	-10.2067
▁attack	-10.2067
ns	-10.207
ified	-10.2073
根	-10.2074
考虑	-10.2082
▁overall	-10.2082
▁Chinese	-10.2083
▁serious	-10.2083
看看	-10.2085
▁exactly	-10.2087
▁cross	-10.2088
甲	-10.2091
iv	-10.2095
IS	-10.2095
目标	-10.2104
space	-10.2108
顶	-10.2108
▁Under	-10.2114
▁whom	-10.2119
▁remain	-10.2119
求	-10.2121
▁defined	-10.2121
let	-10.2122
占	-10.2128
▁sell	-10.2128
真的	-10.2128
▁struct	-10.213
顺	-10.2131
家庭	-10.2134
ile	-10.2135
che	-10.2136
List	-10.2138
部门	-10.2139
▁faith	-10.2139
永	-10.214
He	-10.2141
▁movement	-10.2141
章	-10.2145
CH	-10.2146
▁essential	-10.2146
▁Google	-10.2149
▁methods	-10.2152
那个	-10.2154
离	-10.2155
▁League	-10.2156
top	-10.2157
ible	-10.2163
▁official	-10.2163
车辆	-10.2164
您可以	-10.2167
▁Russian	-10.2169
新的	-10.2172
机械	-10.2174
教师	-10.2181
新闻	-10.2186
▁earlier	-10.2188
▁Next	-10.2192
▁Another	-10.2195
▁Ba	-10.22
桥	-10.2202
▁Lo	-10.2206
曾	-10.2207
纳	-10.2221
有些	-10.2222
▁films	-10.2226
▁immediately	-10.2232
▁};	-10.2234
▁host	-10.2237
杯	-10.2237
ran	-10.2239
▁fully	-10.2244
仅	-10.2245
▁critical	-10.225
给我	-10.225
OR	-10.2252
广	-10.2254
▁surface	-10.2257
load	-10.2257
ble	-10.2258
运行	-10.2259
款式	-10.2261
▁Per	-10.2263
▁Music	-10.2266
▁finally	-10.2268
整	-10.2273
阅读	-10.2277
▁length	-10.2278
宣传	-10.2284
▁loved	-10.2287
升	-10.2291
具	-10.2295
▁completed	-10.2295
cro	-10.2297
基础	-10.2298
▁Good	-10.2299
制造	-10.2299
oc	-10.23
▁firm	-10.23
▁fight	-10.231
玉	-10.231
出来	-10.2312
▁pick	-10.2316
注册	-10.2321
办	-10.2326
静	-10.2329
每个	-10.233
确认	-10.2332
▁charge	-10.2334
act	-10.2336
▁factor	-10.2339
▁star	-10.2341
▁Union	-10.2341
▁speed	-10.2344
运营	-10.2345
最新	-10.2346
▁thus	-10.2348
%********%	-10.2355
▁Apple	-10.236
产生	-10.2364
▁annual	-10.2365
ny	-10.2367
▁Friday	-10.2367
体系	-10.2368
▁link	-10.2368
path	-10.237
卷	-10.2374
▁skin	-10.2375
▁solutions	-10.2376
死	-10.2377
侧	-10.2378
vo	-10.238
mit	-10.238
Object	-10.238
盛	-10.2389
like	-10.239
这里	-10.2395
▁speak	-10.24
▁red	-10.2408
);	-10.2408
▁numbers	-10.2408
File	-10.2418
▁Today	-10.2422
TH	-10.2426
▁Please	-10.2429
库	-10.2435
久	-10.244
qui	-10.2441
足	-10.2445
▁challenges	-10.2446
▁helped	-10.2446
▁strategy	-10.2448
▁Year	-10.2452
▁generally	-10.2455
light	-10.2456
xff	-10.2461
▁match	-10.2464
志	-10.2466
||	-10.2471
▁Award	-10.2475
tu	-10.2486
▁middle	-10.2486
▁regarding	-10.2487
fi	-10.249
岁	-10.2491
dis	-10.2493
▁Bill	-10.2493
shop	-10.2494
▁Israel	-10.2497
ens	-10.2498
食品	-10.2498
鞋	-10.2498
互联网	-10.2501
▁piece	-10.2502
SC	-10.2503
▁files	-10.2506
梦	-10.2507
▁Free	-10.2516
▁COVID	-10.2523
题	-10.2524
▁certainly	-10.2533
记得好评哦	-10.2534
降低	-10.2537
▁///	-10.2539
圆	-10.2543
reg	-10.2547
▁budget	-10.2548
▁son	-10.255
▁operations	-10.2551
▁drug	-10.2554
▁target	-10.2554
软	-10.2555
盒	-10.2555
mat	-10.2559
AC	-10.256
交流	-10.2564
方向	-10.2568
RO	-10.2575
每天	-10.2582
div	-10.2585
▁offered	-10.2589
都会	-10.2601
确保	-10.2608
课程	-10.2613
▁favorite	-10.2614
里面	-10.2614
笔	-10.2617
十分	-10.2618
▁nation	-10.2623
位置	-10.2644
▁caused	-10.2644
mal	-10.2646
知	-10.2647
tag	-10.2649
「********」，	-10.2654
cr	-10.2658
▁Peter	-10.2659
▁otherwise	-10.266
计算	-10.2673
通知	-10.2675
%，	-10.2681
奥	-10.2689
▁mis	-10.2689
友	-10.2708
传统	-10.2711
▁嗯嗯	-10.2713
ft	-10.2713
望	-10.2716
照	-10.2717
交通	-10.2722
IC	-10.2724
▁election	-10.2726
▁background	-10.2732
商业	-10.2737
▁floor	-10.2739
US	-10.274
si	-10.2744
艺术	-10.2745
ious	-10.2748
农	-10.2749
▁District	-10.2753
封	-10.2756
破	-10.2757
▁applications	-10.2758
▁supply	-10.2762
▁Review	-10.2765
ach	-10.2779
▁teams	-10.2783
▁learned	-10.2788
测试	-10.279
▁daughter	-10.279
双方	-10.2792
▁highest	-10.2796
联系我们	-10.28
AT	-10.2801
▁Russia	-10.2801
▁\\	-10.2802
▁feet	-10.2806
▁female	-10.2809
电视	-10.2809
▁Who	-10.281
夜	-10.281
board	-10.2812
报告	-10.2818
▁behavior	-10.282
决定	-10.282
RA	-10.2822
▁Development	-10.2822
IO	-10.2824
最终	-10.2831
▁items	-10.2838
▁presence	-10.2838
}(	-10.2848
英	-10.2849
▁Foundation	-10.285
▁perhaps	-10.2851
▁independent	-10.2853
请核对以下信息是否正确	-10.2854
奖	-10.2856
ob	-10.2862
▁Che	-10.2875
我国	-10.2877
▁maybe	-10.2879
width	-10.2881
基金	-10.2883
空气	-10.2884
▁setting	-10.2893
▁healthy	-10.2894
▁initial	-10.2895
_{\	-10.2901
▁looks	-10.2905
▁bill	-10.2906
▁rock	-10.2916
▁auto	-10.2917
跑	-10.2921
▁helps	-10.2922
▁existing	-10.2923
▁Minister	-10.2927
暖	-10.2932
读	-10.2937
▁sports	-10.2937
wood	-10.2938
ME	-10.2939
▁unit	-10.2941
文章	-10.2941
▁memory	-10.2944
▁eight	-10.2946
的产品	-10.2949
食	-10.2962
▁sector	-10.2966
居	-10.297
▁pass	-10.2977
加盟	-10.298
付	-10.2987
研发	-10.2988
▁Florida	-10.299
▁male	-10.2993
▁fair	-10.2994
▁object	-10.2997
play	-10.3002
ute	-10.3005
▁picture	-10.3006
▁comment	-10.301
book	-10.302
▁distribution	-10.3024
▁mode	-10.3026
▁Los	-10.3028
职业	-10.3033
▁challenge	-10.3034
比赛	-10.3039
▁bank	-10.3043
▁guide	-10.3045
断	-10.3046
▁machine	-10.3047
▁Ga	-10.3051
▁Com	-10.3052
宽	-10.3053
▁reality	-10.3055
jo	-10.306
▁damage	-10.3061
拿	-10.3065
▁letter	-10.3071
▁returned	-10.3077
刷	-10.3077
造	-10.3079
何	-10.308
假	-10.308
为什么	-10.3091
▁achieve	-10.3092
▁requires	-10.3094
▁std	-10.3094
error	-10.3096
▁Mark	-10.3097
留言	-10.3098
▁hospital	-10.3106
只能	-10.3106
▁equipment	-10.3106
蓝	-10.311
with	-10.3113
▁Love	-10.3116
▁touch	-10.3118
ec	-10.3118
▁competition	-10.3118
纯	-10.3125
▁journey	-10.3127
▁majority	-10.3128
帮	-10.3133
▁block	-10.3133
low	-10.3135
购物	-10.3152
remark	-10.3152
都可以	-10.3153
▁central	-10.3155
▁presented	-10.3161
存	-10.3165
▁reports	-10.3167
▁married	-10.3168
查看	-10.3172
▁leader	-10.3175
重要	-10.3175
知道	-10.3175
规划	-10.3177
急	-10.318
ski	-10.3182
▁Open	-10.3188
▁maintain	-10.3188
ek	-10.3199
▁Lu	-10.3203
▁novel	-10.3211
wi	-10.3211
FC	-10.3212
任务	-10.3212
tb	-10.3212
▁Commission	-10.3215
影	-10.3219
▁virtual	-10.3219
从而	-10.322
直播	-10.3223
▁sleep	-10.3232
派	-10.3237
▁joined	-10.3237
▁trans	-10.3239
De	-10.3239
lies	-10.324
▁quarter	-10.3241
▁nice	-10.3245
▁cash	-10.325
瓶	-10.3251
小编	-10.3251
▁lines	-10.3258
▁showed	-10.326
work	-10.3262
技能	-10.3262
广告	-10.3263
养	-10.3263
是一个	-10.3264
▁Y	-10.327
▁Time	-10.327
▁appear	-10.3272
▁hour	-10.3273
AD	-10.3275
▁senior	-10.3275
资料	-10.3275
塔	-10.3281
dd	-10.3288
▁Star	-10.3288
▁gone	-10.329
ging	-10.3303
喷	-10.3309
▁shared	-10.3312
▁transfer	-10.3313
pic	-10.3315
self	-10.3316
▁offering	-10.3317
SP	-10.3318
▁peace	-10.3318
part	-10.3318
▁enter	-10.3321
▁remains	-10.3323
比如	-10.3324
▁steps	-10.3331
▁di	-10.3337
art	-10.3338
ade	-10.3339
▁funds	-10.3352
▁Two	-10.3353
▁opened	-10.3354
一年	-10.3355
记	-10.3358
智	-10.3359
加强	-10.3359
▁join	-10.3361
▁models	-10.3361
玻璃	-10.3366
▁Ubuntu	-10.3367
他的	-10.3369
负	-10.3369
gi	-10.337
ng	-10.337
吴	-10.3371
▁Facebook	-10.3372
金融	-10.3374
hold	-10.3375
▁progress	-10.338
▁experienced	-10.3384
馆	-10.339
素	-10.3391
om	-10.3393
ref	-10.3394
▁wait	-10.3395
▁dark	-10.3398
欧	-10.3399
雅	-10.3401
▁artist	-10.3402
阶段	-10.3403
▁leadership	-10.3409
流程	-10.341
打开	-10.3411
▁correct	-10.3415
歌	-10.3415
▁exchange	-10.3416
▁advice	-10.3417
sp	-10.3418
环保	-10.342
For	-10.3422
▁Management	-10.3424
AR	-10.3424
uk	-10.3433
ot	-10.3433
▁hair	-10.3435
▁Society	-10.3436
▁debt	-10.3438
▁Hall	-10.3442
▁entry	-10.3452
再次	-10.3464
▁Ex	-10.3467
▁club	-10.3469
▁sold	-10.3469
讲	-10.3474
▁demand	-10.3475
这么	-10.3479
慢	-10.3479
▁conference	-10.3481
▁uses	-10.3482
细	-10.3482
▁master	-10.3483
▁produce	-10.3483
提出	-10.3492
▁older	-10.3493
gar	-10.3494
▁academic	-10.3496
ral	-10.3496
cing	-10.3499
▁Cor	-10.35
▁client	-10.3501
ok	-10.3501
▁larger	-10.3504
▁powerful	-10.3504
官	-10.351
▁tend	-10.351
▁Each	-10.3516
nt	-10.352
▁birth	-10.3522
界	-10.3532
定制	-10.3532
▁internet	-10.3534
▁developing	-10.3535
▁promote	-10.3538
停	-10.3539
▁administration	-10.3545
mount	-10.3547
▁Dec	-10.3548
▁manage	-10.3549
▁Germany	-10.355
array	-10.3556
don	-10.3557
MO	-10.356
ments	-10.3568
▁William	-10.3578
▁green	-10.3581
票	-10.3582
▁Lake	-10.3585
康	-10.3587
▁instance	-10.3588
buf	-10.3589
士	-10.3591
▁Congress	-10.3593
cip	-10.3593
ign	-10.3593
FA	-10.3593
pre	-10.3596
ker	-10.3596
针对	-10.3597
▁previously	-10.3597
sha	-10.3598
sur	-10.3599
▁doctor	-10.36
tain	-10.36
▁rule	-10.3608
▁amazing	-10.3609
fo	-10.3612
▁stuff	-10.3614
当然	-10.3616
金属	-10.3618
lt	-10.3619
淘宝	-10.362
▁interview	-10.3621
峰	-10.3622
▁payment	-10.3627
审	-10.3628
ov	-10.363
open	-10.3631
维	-10.3633
▁trip	-10.3633
副	-10.3635
▁ones	-10.3641
内部	-10.3645
GL	-10.365
▁actions	-10.365
收藏	-10.365
表现	-10.3651
▁toward	-10.3653
▁Mary	-10.3658
ai	-10.3663
计	-10.3663
绿	-10.3671
▁expression	-10.3671
厂家	-10.3672
kin	-10.3675
▁Like	-10.3675
▁elements	-10.3676
▁Ben	-10.3677
▁Mc	-10.3678
EP	-10.368
专家	-10.3682
▁characters	-10.3683
坚持	-10.369
del	-10.3699
注	-10.3699
实施	-10.3701
▁policies	-10.3702
容易	-10.3705
速度	-10.371
证据	-10.3712
作品	-10.3714
▁Press	-10.3718
▁vehicle	-10.3719
轴	-10.3719
pin	-10.372
是什么	-10.372
▁communication	-10.3725
购	-10.3727
ON	-10.3728
▁stress	-10.3732
富	-10.3732
▁enable	-10.3735
待	-10.3737
势	-10.374
ford	-10.3741
print	-10.3742
▁excellent	-10.3743
bl	-10.3743
不了	-10.3745
品质	-10.3747
▁display	-10.3749
秋	-10.375
▁sale	-10.3751
▁couldn	-10.376
笑	-10.3762
▁strength	-10.3766
base	-10.3768
效率	-10.3768
▁drop	-10.3769
▁hot	-10.3771
过程	-10.3773
▁Museum	-10.3777
▁jobs	-10.378
$,	-10.378
本次	-10.3784
▁becoming	-10.3785
印	-10.3793
倒	-10.3794
ye	-10.3796
Set	-10.3797
也会	-10.3798
ins	-10.3798
▁environmental	-10.3799
▁useful	-10.3802
时代	-10.3804
▁performed	-10.3806
规定	-10.381
ino	-10.381
优	-10.3813
杀	-10.3814
room	-10.3815
呀	-10.3819
lic	-10.382
▁Party	-10.382
▁forms	-10.3821
hat	-10.3827
ville	-10.3828
▁photo	-10.3829
社区	-10.3829
▁nor	-10.3833
▁draw	-10.3834
py	-10.3837
▁figure	-10.3839
折	-10.3845
▁lose	-10.385
max	-10.3853
ev	-10.3854
▁Human	-10.3861
苏	-10.3862
优化	-10.3862
▁decide	-10.3865
▁images	-10.3867
社	-10.3867
▁Their	-10.3868
▁wants	-10.387
▁train	-10.3873
▁trial	-10.3874
▁External	-10.3876
专	-10.3877
▁Book	-10.3878
槽	-10.3879
ray	-10.3881
MI	-10.3883
媒体	-10.3885
▁religious	-10.3885
▁television	-10.3887
▁mid	-10.3888
▁Saturday	-10.3894
rating	-10.3894
▁window	-10.3895
身体	-10.3897
招	-10.3899
屏	-10.3903
ack	-10.3903
麻烦您	-10.3906
▁Canadian	-10.3906
▁Last	-10.3909
接受	-10.391
精神	-10.3911
倍	-10.3913
▁prices	-10.3915
！/:	-10.3915
护	-10.3916
▁kept	-10.3918
皮肤	-10.3918
des	-10.3919
展示	-10.3922
▁rise	-10.393
▁failure	-10.393
ru	-10.3932
不到	-10.3932
▁opening	-10.3932
Fi	-10.3938
▁explore	-10.3942
sky	-10.3944
▁truly	-10.3946
耐	-10.3948
▁download	-10.3949
▁Part	-10.3951
）。	-10.3953
▁direction	-10.3953
▁claims	-10.3955
CA	-10.3959
▁relevant	-10.3959
会议	-10.3962
istic	-10.3963
泰	-10.3967
cy	-10.3967
推广	-10.3969
▁flow	-10.3979
▁Sch	-10.398
聚	-10.3981
负责	-10.3983
咱们	-10.3987
正式	-10.3988
▁Monday	-10.3991
group	-10.3994
▁卖家发货	-10.3997
▁radio	-10.3997
▁click	-10.4
▁micro	-10.4002
▁mass	-10.4002
▁sex	-10.4008
BC	-10.4008
▁Club	-10.4009
‘	-10.401
▁tool	-10.401
▁remove	-10.401
普	-10.4013
不知道	-10.4016
ita	-10.402
厚	-10.4021
▁Hi	-10.4023
▁dead	-10.4025
▁district	-10.4025
▁task	-10.403
▁mobile	-10.4031
▁loan	-10.4031
儿童	-10.4034
What	-10.4037
▁mentioned	-10.4039
spec	-10.404
tin	-10.4043
抽	-10.4047
▁helping	-10.405
▁devices	-10.4053
散	-10.4056
税	-10.4059
份	-10.4061
ji	-10.4063
ez	-10.4064
▁System	-10.4068
unify	-10.4069
▁Any	-10.4071
下面	-10.4072
related	-10.4074
db	-10.4077
Info	-10.408
▁Christmas	-10.4081
▁bool	-10.4083
容	-10.4083
击	-10.4085
vis	-10.4091
TA	-10.4091
ath	-10.4092
tech	-10.4096
beta	-10.4097
▁default	-10.4106
▁finding	-10.411
▁decisions	-10.4114
▁secret	-10.4115
▁easier	-10.4118
特色	-10.4119
▁doubt	-10.4121
▁brother	-10.4122
▁pandemic	-10.4123
恩	-10.4124
▁clinical	-10.4125
▁Internet	-10.4125
PC	-10.4128
▁aware	-10.4135
风格	-10.4135
▁warm	-10.4137
ki	-10.4137
▁好的呢	-10.4138
text	-10.4138
归	-10.4138
Co	-10.414
背	-10.414
▁contains	-10.4142
▁songs	-10.4146
汉	-10.415
ture	-10.4152
很高兴为您服务	-10.4156
▁select	-10.4161
必	-10.4167
提交	-10.4169
▁Bi	-10.417
尽	-10.4171
▁executive	-10.4171
ub	-10.4178
▁seeing	-10.4178
▁gets	-10.4179
rn	-10.4181
稳定	-10.4181
▁signed	-10.4183
工具	-10.4183
▁audience	-10.4185
▁Ni	-10.4187
数字	-10.4188
ES	-10.4189
yl	-10.419
▁Ad	-10.4191
▁bio	-10.4197
▁raised	-10.42
And	-10.4207
▁experiences	-10.4209
▁actual	-10.421
amp	-10.4217
▁appeared	-10.4217
▁negative	-10.4218
▁failed	-10.4219
EC	-10.4222
but	-10.4225
OK	-10.4225
▁accept	-10.4226
我是	-10.4234
▁purposes	-10.4235
▁violence	-10.4238
▁Report	-10.4239
▁criminal	-10.4245
AM	-10.4245
▁funding	-10.4248
乡	-10.4251
异	-10.4253
▁distance	-10.4264
init	-10.4265
▁cultural	-10.4265
object	-10.4267
并不	-10.4269
也有	-10.427
▁capacity	-10.4275
%。	-10.4278
例	-10.428
down	-10.428
行为	-10.4282
▁reached	-10.4286
添加	-10.4286
▁Roman	-10.4289
verse	-10.4292
官方	-10.4293
▁lived	-10.4294
ric	-10.4294
▁Power	-10.4298
▁sources	-10.4298
▁marriage	-10.4299
ient	-10.4303
ological	-10.4308
}_{	-10.4309
▁Information	-10.4313
mate	-10.4317
cap	-10.4319
press	-10.4319
af	-10.432
我们会	-10.4321
载	-10.4323
start	-10.4325
Event	-10.4325
▁advantage	-10.4331
港	-10.4331
▁manner	-10.4334
▁blue	-10.4341
message	-10.4342
活	-10.4344
▁Make	-10.4345
秀	-10.4347
opt	-10.435
▁Central	-10.4353
夏	-10.4356
冰	-10.4359
▁freedom	-10.436
列	-10.4362
▁proposed	-10.4366
▁becomes	-10.4367
▁measures	-10.4368
指导	-10.437
插	-10.4372
▁station	-10.4375
▁Da	-10.4376
▁scale	-10.4379
▁seemed	-10.4381
免	-10.4381
零	-10.4383
eg	-10.4383
▁village	-10.4386
随	-10.4389
APP	-10.4398
委	-10.4398
▁Jan	-10.4399
▁placed	-10.44
上述	-10.44
▁Ja	-10.44
▁aren	-10.4401
▁famous	-10.4406
▁Before	-10.441
▁internal	-10.4413
相信	-10.4414
亲爱的	-10.4415
▁whatever	-10.4418
ay	-10.4422
▁vote	-10.4422
▁wind	-10.4428
挂	-10.4429
▁Western	-10.4434
▁Men	-10.4439
密	-10.4441
硬	-10.4444
帮您	-10.4444
▁survey	-10.4448
州市	-10.4452
▁Project	-10.4455
▁Yes	-10.4458
修改	-10.4467
br	-10.4467
含	-10.4467
销	-10.447
有关	-10.4476
taoquan	-10.4477
▁heat	-10.4477
ery	-10.4479
登记	-10.4486
century	-10.4487
tle	-10.449
▁civil	-10.4491
▁award	-10.4495
最近	-10.4498
赵	-10.4499
变化	-10.45
瑞	-10.4501
找到	-10.4502
▁Ri	-10.4502
的吗	-10.4505
▁Where	-10.4508
▁assist	-10.4511
▁happens	-10.4513
INT	-10.4514
ties	-10.4514
▁hearing	-10.4516
▁perspective	-10.4522
TO	-10.4523
▁Cup	-10.4527
GA	-10.453
▁deliver	-10.4531
脸	-10.4531
▁numerous	-10.4532
床	-10.4535
▁importance	-10.4535
▁Japan	-10.4536
▁rich	-10.4539
If	-10.4541
▁owner	-10.4544
phi	-10.4544
故	-10.4544
文件	-10.4548
▁la	-10.455
ord	-10.4552
▁Journal	-10.4554
Size	-10.4554
▁Bay	-10.4556
备	-10.4561
▁earth	-10.4569
也不	-10.4571
▁Sun	-10.4576
Error	-10.458
▁killed	-10.4582
▁document	-10.4582
▁quick	-10.4583
位于	-10.4587
/:^	-10.4588
▁identify	-10.4589
随时	-10.459
▁artists	-10.459
酒店	-10.459
▁records	-10.4591
▁camp	-10.4592
建立	-10.4593
墙	-10.4594
bra	-10.4595
▁battle	-10.4597
感觉	-10.4619
▁agency	-10.4623
的发展	-10.4623
script	-10.463
ency	-10.4632
▁shape	-10.4632
▁Living	-10.4637
轻松	-10.4637
一件	-10.4638
lip	-10.464
ans	-10.465
sk	-10.4652
的地方	-10.4657
过去	-10.4657
OP	-10.4658
新品	-10.466
▁department	-10.466
嘛	-10.466
▁Americans	-10.4661
长期	-10.4662
▁Sam	-10.4663
RT	-10.4664
▁abuse	-10.467
▁boot	-10.4672
▁Use	-10.4675
▁sit	-10.4676
成绩	-10.4681
来看	-10.4682
的时间	-10.4688
▁spread	-10.469
泵	-10.4691
来源	-10.4695
政府	-10.4698
▁properties	-10.4699
▁practices	-10.4703
non	-10.4705
▁writer	-10.471
营	-10.4713
style	-10.4715
▁determined	-10.4715
rin	-10.4717
▁theory	-10.4719
▁Section	-10.472
叫	-10.472
刀	-10.4723
▁seek	-10.4727
首先	-10.4728
个月	-10.473
优质	-10.4732
实力	-10.4732
▁conduct	-10.4733
▁injury	-10.4738
zy	-10.4741
▁increasing	-10.4741
▁honor	-10.4742
▁Rock	-10.4746
东西	-10.4759
▁pop	-10.4759
配合	-10.476
NA	-10.4761
▁separate	-10.4763
▁appears	-10.4764
▁gold	-10.4766
▁names	-10.4769
兵	-10.4772
Image	-10.4772
▁handle	-10.4774
▁format	-10.4776
▁balance	-10.4778
会有	-10.4784
属	-10.4784
维护	-10.4785
\\	-10.4785
▁vision	-10.4787
ius	-10.4792
▁definitely	-10.4795
柜	-10.4798
▁Har	-10.4798
▁focused	-10.4802
▁Have	-10.4805
▁Thomas	-10.4806
不用	-10.4807
滑	-10.481
最高	-10.4813
会员	-10.4814
▁Top	-10.4818
▁equal	-10.4819
页面	-10.4821
rt	-10.483
▁Security	-10.4832
▁contents	-10.4833
▁Tom	-10.4836
符合	-10.4841
围	-10.4841
了哦	-10.4841
which	-10.4842
▁wall	-10.4846
▁residents	-10.4846
设	-10.485
State	-10.485
措施	-10.4853
▁ahead	-10.4855
错	-10.4858
▁operation	-10.4859
▁Gi	-10.4859
透	-10.4862
▁connect	-10.4862
▁stated	-10.4863
航	-10.4864
▁cities	-10.4865
一款	-10.4871
疫情	-10.4872
▁Family	-10.4874
▁input	-10.4874
分别	-10.4874
▁selected	-10.4879
谈	-10.4882
▁desire	-10.4885
▁shot	-10.4885
▁spirit	-10.4888
▁dream	-10.4888
ast	-10.4894
zo	-10.4895
Time	-10.4895
治	-10.4898
Map	-10.4899
ple	-10.4899
▁manager	-10.4903
▁[…]	-10.4905
nk	-10.4906
▁biggest	-10.4908
ari	-10.4908
▁advance	-10.491
▁gain	-10.4911
span	-10.4912
▁affect	-10.4913
▁List	-10.4915
arch	-10.4915
▁slow	-10.4918
png	-10.4918
最大	-10.4919
av	-10.492
▁connected	-10.4923
▁except	-10.4925
本院	-10.4929
餐	-10.4933
▁installed	-10.4935
参考	-10.4938
▁Smith	-10.4939
糖	-10.4945
形式	-10.4946
cat	-10.4951
卫	-10.4953
▁standards	-10.4955
重新	-10.4956
▁extremely	-10.4958
▁Plan	-10.4959
▁relationships	-10.496
▁finished	-10.4961
ned	-10.4961
金额	-10.4962
▁Community	-10.4963
▁repair	-10.4969
▁forces	-10.4972
▁Design	-10.4976
▁posted	-10.4983
球队	-10.4986
▁Data	-10.4988
pur	-10.4991
记录	-10.4991
▁comments	-10.4992
▁despite	-10.4995
▁sun	-10.4995
支撑	-10.4997
进行了	-10.4998
▁Catholic	-10.5001
应当	-10.5004
rep	-10.5004
active	-10.5018
GB	-10.5018
▁Master	-10.5022
▁authority	-10.5023
▁justice	-10.5023
BE	-10.5028
因素	-10.5029
限	-10.503
成长	-10.503
▁ball	-10.503
ify	-10.5038
此次	-10.5038
▁opinion	-10.5039
报名	-10.5042
▁parent	-10.5045
扣	-10.5047
▁Si	-10.5048
返	-10.5049
▁Fund	-10.5051
▁Big	-10.5054
Field	-10.5058
SD	-10.5059
count	-10.5059
oma	-10.506
sta	-10.5061
梅	-10.5062
▁pair	-10.5062
▁miles	-10.5063
许	-10.5064
CS	-10.5064
Index	-10.5071
仍	-10.5074
▁crisis	-10.5081
独	-10.5089
▁log	-10.5091
办理	-10.5092
DO	-10.5093
面积	-10.5096
▁covered	-10.5098
▁output	-10.5099
喜	-10.51
举	-10.5101
▁Road	-10.5104
▁Island	-10.5108
▁responsibility	-10.5112
▁continues	-10.5112
追	-10.5113
▁eventually	-10.5116
▁raise	-10.5118
朝	-10.5118
▁carry	-10.5123
▁significantly	-10.5123
晓	-10.5125
损失	-10.5126
了呢	-10.5127
有的	-10.513
▁Up	-10.5131
qua	-10.5131
▁TO	-10.5132
▁dog	-10.5133
人才	-10.5138
消息	-10.514
std	-10.5148
▁generation	-10.5149
cent	-10.515
▁Richard	-10.5152
明天	-10.5153
law	-10.5157
MC	-10.5159
translation	-10.516
▁creative	-10.516
▁Chicago	-10.5162
▁Ti	-10.5164
▁Martin	-10.5166
测	-10.5167
uc	-10.5168
来自	-10.5168
▁obtain	-10.517
职	-10.5174
level	-10.5176
▁Water	-10.5177
▁Medical	-10.5178
Table	-10.5188
View	-10.519
▁Windows	-10.519
核	-10.5195
ration	-10.5196
▁recommend	-10.5196
配置	-10.5196
CL	-10.52
联系客服	-10.5201
▁interests	-10.5203
▁occur	-10.5204
▁officials	-10.521
▁Both	-10.521
▁USA	-10.5213
翻	-10.5216
定位	-10.5216
▁Sha	-10.5217
DE	-10.5218
▁driver	-10.5223
iz	-10.5224
音乐	-10.5226
▁phase	-10.5228
▁thousands	-10.5228
stream	-10.523
war	-10.5231
core	-10.5233
创业	-10.5234
▁concept	-10.5237
▁EU	-10.5238
湿	-10.5238
▁Global	-10.5242
驾驶	-10.5244
printf	-10.5245
▁scene	-10.525
矿	-10.5252
▁Ru	-10.5253
TS	-10.5254
▁suit	-10.5255
▁press	-10.5257
▁treat	-10.5258
▁combination	-10.5266
法律	-10.5268
季	-10.527
多个	-10.527
sec	-10.5272
▁box	-10.5275
动力	-10.528
几个	-10.5281
▁clearly	-10.5283
仪	-10.5283
▁classes	-10.5283
有任何问题	-10.5283
▁»	-10.5283
berg	-10.5285
▁closed	-10.5286
孙	-10.5288
lock	-10.5293
▁driving	-10.5293
▁functions	-10.5294
}_	-10.5294
运输	-10.5296
规模	-10.5298
▁operating	-10.53
CR	-10.5308
▁committed	-10.5309
▁score	-10.5312
▁Every	-10.5314
PR	-10.5314
流量	-10.5317
Un	-10.5319
ix	-10.5322
医疗	-10.5323
▁processes	-10.5326
▁visual	-10.5327
▁officer	-10.5328
lor	-10.5329
▁Ch	-10.5331
更多的	-10.5332
Reg	-10.5332
判	-10.5334
rap	-10.5336
cur	-10.5347
config	-10.5348
▁<<	-10.5349
mask	-10.5353
引	-10.5353
▁fresh	-10.5354
▁Super	-10.5357
▁discuss	-10.5359
弱	-10.5362
▁map	-10.5362
▁wouldn	-10.5363
▁Times	-10.5363
显	-10.5366
gel	-10.5368
ably	-10.5369
▁cur	-10.537
▁technical	-10.5376
人民	-10.5377
▁reference	-10.5377
▁cool	-10.5377
小区	-10.5378
▁OR	-10.538
▁youth	-10.538
tab	-10.5381
▁wonderful	-10.5387
((	-10.5389
准	-10.5391
▁obtained	-10.5393
电池	-10.5402
脱	-10.5402
eth	-10.5403
▁Pe	-10.5404
▁homes	-10.541
▁begin	-10.5411
▁ended	-10.5412
曲	-10.5414
联合	-10.5415
▁documents	-10.5419
模	-10.5421
▁Trans	-10.5424
不可	-10.5428
▁symptoms	-10.5431
▁teacher	-10.5431
射	-10.5433
徐	-10.5434
▁Chi	-10.5434
▁trouble	-10.5435
包裹	-10.5437
","********	-10.5437
cha	-10.544
Edit	-10.5441
▁root	-10.5444
mod	-10.5444
sen	-10.5446
统一	-10.5447
电脑	-10.5452
▁attempt	-10.5454
▁Fa	-10.5459
尚	-10.5459
▁ideal	-10.546
CI	-10.5468
遇到	-10.5469
秒	-10.547
▁Sea	-10.5471
▁coach	-10.5473
清洗	-10.5482
*/	-10.5484
等等	-10.5486
▁decades	-10.5488
提前	-10.549
uff	-10.549
一份	-10.5494
],	-10.5496
▁Team	-10.55
▁route	-10.55
lk	-10.5501
协议	-10.5503
有点	-10.5508
▁gift	-10.5509
哪	-10.5511
收入	-10.5514
还可以	-10.5517
▁supported	-10.5518
MAX	-10.5519
电影	-10.552
隔	-10.552
▁</	-10.5527
▁Therefore	-10.5529
RS	-10.5529
签	-10.553
丰	-10.5534
▁Ver	-10.5535
▁cold	-10.5536
▁*)	-10.5536
调节	-10.5541
▁Tuesday	-10.5545
CE	-10.5546
阀	-10.555
么么哒	-10.5553
water	-10.5556
▁Federal	-10.5558
rat	-10.556
赔偿	-10.556
▁Thursday	-10.5564
▁Photo	-10.5564
aw	-10.5565
ae	-10.5566
▁AND	-10.5568
查询	-10.5572
▁custom	-10.5572
á	-10.5573
gate	-10.5574
骨	-10.5575
BA	-10.5576
▁missing	-10.558
请您	-10.5582
给你	-10.5584
尾	-10.5585
▁thoughts	-10.5585
▁applied	-10.5592
程度	-10.5594
▁prepared	-10.5595
SH	-10.5596
NO	-10.5597
党	-10.5598
▁Bur	-10.5602
▁Thanks	-10.5609
广州	-10.5612
哪个	-10.5615
历史	-10.5619
▁Rights	-10.562
last	-10.5624
▁Arts	-10.5625
灵	-10.5626
▁speech	-10.5634
IA	-10.5635
▁dedicated	-10.5638
nu	-10.564
lat	-10.5641
▁institutions	-10.5641
▁unless	-10.5643
索	-10.5646
ven	-10.5646
▁Grand	-10.565
▁testing	-10.565
%)	-10.5651
明显	-10.5657
▁fans	-10.5657
▁calls	-10.5663
▁selection	-10.5663
▁Paris	-10.5665
生态	-10.5665
eb	-10.5669
仓	-10.5672
既	-10.5673
特殊	-10.5673
靠	-10.5674
user	-10.5675
如此	-10.5676
财	-10.5683
van	-10.5684
▁sexual	-10.5687
Base	-10.5691
家长	-10.5695
cho	-10.5697
win	-10.5697
时尚	-10.5699
▁Out	-10.5699
▁commitment	-10.5701
wing	-10.5702
▁Web	-10.5706
▁Technology	-10.5708
▁Real	-10.571
▁university	-10.571
理念	-10.571
▁spending	-10.5711
▁Brown	-10.5716
▁launch	-10.5724
ons	-10.5725
战略	-10.5726
许多	-10.5735
km	-10.5737
届	-10.5739
▁facilities	-10.5739
▁secure	-10.574
地方	-10.5742
球员	-10.5746
▁lean	-10.5751
持	-10.5752
经常	-10.5755
是不是	-10.5757
▁alternative	-10.5758
vers	-10.5759
▁package	-10.5759
绝	-10.576
▁Wednesday	-10.5761
目	-10.5764
sol	-10.5771
粘	-10.5781
▁eat	-10.5784
▁Asia	-10.5788
▁load	-10.5796
put	-10.5799
dia	-10.5799
取得	-10.5806
row	-10.5806
▁在吗	-10.5807
▁meant	-10.5807
。“	-10.5809
领导	-10.5809
IF	-10.5814
▁Ge	-10.5818
借款	-10.582
红包	-10.582
藏	-10.5821
position	-10.5826
▁discussion	-10.5827
单元	-10.5828
众	-10.5828
越来越	-10.583
▁bear	-10.5832
相对	-10.5832
▁typically	-10.5835
hr	-10.5843
▁cast	-10.5844
▁haven	-10.5844
▁concerns	-10.5846
▁Mon	-10.5847
噢	-10.5849
mathbb	-10.5853
CO	-10.586
▁recorded	-10.5861
▁App	-10.5861
▁Tu	-10.5864
促进	-10.5866
▁follows	-10.5869
▁Dan	-10.5869
▁chain	-10.5873
▁Australian	-10.5873
成立	-10.5874
意见	-10.5877
▁limit	-10.5878
▁leaving	-10.5878
ore	-10.5882
organ	-10.5883
▁listed	-10.5888
车型	-10.5892
lit	-10.5893
▁Copyright	-10.5895
先生	-10.5895
▁fan	-10.5898
词	-10.5901
▁Second	-10.5905
emb	-10.5906
▁Care	-10.5908
▁Policy	-10.5913
▁transition	-10.5914
ose	-10.5915
托	-10.5921
▁Earth	-10.5922
梁	-10.5925
EM	-10.5925
舒适	-10.5925
齐	-10.5926
▁north	-10.5926
给我们	-10.5926
日本	-10.5928
Node	-10.593
指定	-10.5931
++	-10.5931
▁Bible	-10.5933
英语	-10.5936
nch	-10.5937
from	-10.5939
▁views	-10.5941
▁tour	-10.5943
守	-10.595
Key	-10.595
此外	-10.595
旧	-10.5952
ET	-10.5955
▁Academy	-10.5955
距离	-10.5955
▁animals	-10.5958
▁Ab	-10.596
▁nine	-10.5962
推动	-10.5963
▁introduced	-10.5966
现代	-10.5967
▁encourage	-10.5968
▁crime	-10.5969
▁edge	-10.5973
▁Long	-10.598
activityId	-10.5983
tern	-10.5983
ml	-10.5987
▁garden	-10.5994
▁park	-10.5996
薄	-10.6
gu	-10.6001
以来	-10.6003
TYPE	-10.6008
jhtml	-10.6012
▁Mexico	-10.6013
唐	-10.6013
ass	-10.6014
▁baby	-10.6018
广东省	-10.6018
▁conversation	-10.6032
▁Virginia	-10.6032
▁measure	-10.6033
▁identified	-10.6035
tan	-10.6036
▁carried	-10.6036
礼	-10.6037
潮	-10.6037
▁catch	-10.6047
▁weekend	-10.6049
ages	-10.6051
TE	-10.6052
规范	-10.6054
伟	-10.6054
改变	-10.6055
新款	-10.6056
acy	-10.6057
▁frame	-10.6061
杰	-10.6062
▁Blue	-10.6063
▁suggest	-10.6066
▁string	-10.6068
吉	-10.607
PM	-10.6071
▁soul	-10.6071
▁嗯	-10.6073
API	-10.6073
life	-10.6073
pr	-10.6074
▁conflict	-10.6075
▁Online	-10.6076
▁guess	-10.6078
length	-10.6079
▁circumstances	-10.608
▁IN	-10.6084
▁Chief	-10.6087
▁south	-10.6088
作者	-10.6094
▁Work	-10.6095
ld	-10.6095
▁Dis	-10.6096
burn	-10.6097
▁housing	-10.6105
rm	-10.6106
能不能	-10.6106
▁Professor	-10.6108
▁volume	-10.6109
rel	-10.611
exp	-10.611
▁proper	-10.6114
受到	-10.6118
▁exist	-10.6118
▁chapter	-10.612
庆	-10.612
ug	-10.6124
险	-10.6125
主题	-10.6128
▁therapy	-10.6131
置	-10.6132
tens	-10.6133
▁Take	-10.6135
SU	-10.6142
庄	-10.6142
▁fix	-10.6146
汇	-10.6146
▁issued	-10.6147
材质	-10.6147
stone	-10.615
▁ourselves	-10.6151
例如	-10.616
▁assets	-10.616
▁imp	-10.616
pl	-10.6161
良	-10.6165
▁teachers	-10.6168
跳	-10.617
房屋	-10.6172
▁changing	-10.6175
▁Angeles	-10.6177
▁street	-10.6183
▁employee	-10.6184
src	-10.6185
▁heavy	-10.6186
▁processing	-10.6194
▁Personal	-10.6196
▁creation	-10.6196
关键	-10.6197
mini	-10.6205
▁tree	-10.6206
堂	-10.6212
▁assistance	-10.6213
cul	-10.6213
}^{	-10.6215
裤	-10.6219
▁sudo	-10.6219
▁schedule	-10.6221
胡	-10.6225
▁debut	-10.6227
刻	-10.6229
▁spiritual	-10.623
苹果	-10.623
ination	-10.6231
place	-10.6231
▁appeal	-10.6236
IL	-10.6236
坐	-10.6236
late	-10.6237
aries	-10.6237
tract	-10.6238
谁	-10.6244
ase	-10.6246
▁advanced	-10.6247
履行	-10.6251
纹	-10.6252
排名	-10.6254
▁在的	-10.6254
▁sharing	-10.6255
淡	-10.6255
▁license	-10.6257
有着	-10.6259
▁Media	-10.626
▁Pat	-10.6261
川	-10.6265
▁para	-10.6265
▁committee	-10.6272
MB	-10.6272
鸡	-10.6274
是一种	-10.6277
▁Cal	-10.6278
▁citizens	-10.6284
做到	-10.6286
▁identity	-10.6286
野	-10.6292
▁transport	-10.6294
▁Ke	-10.6295
ash	-10.6298
如下	-10.6299
小的	-10.6301
SS	-10.6302
净	-10.6303
ella	-10.6304
诗	-10.6306
▁managed	-10.6308
▁Thus	-10.631
▁approximately	-10.631
Count	-10.6313
EL	-10.6317
ju	-10.6319
▁intended	-10.632
毒	-10.6323
▁port	-10.6324
沉	-10.6327
▁Royal	-10.6327
推进	-10.6332
▁adult	-10.6334
▁PM	-10.6339
town	-10.6341
咱家	-10.6343
▁weather	-10.6344
▁professor	-10.6345
▁explain	-10.6345
族	-10.6346
一切	-10.6347
▁smaller	-10.6347
▁traffic	-10.6347
信号	-10.6349
temp	-10.6354
▁defense	-10.6357
▁affected	-10.6357
▁Market	-10.6361
卫生	-10.6362
ala	-10.6365
缺	-10.6368
▁river	-10.6372
获	-10.6372
▁Cha	-10.6377
一天	-10.6385
▁electronic	-10.6386
▁Those	-10.6388
pro	-10.6388
创造	-10.6389
▁historical	-10.6391
▁respond	-10.6397
▁graduate	-10.6398
loc	-10.64
好评	-10.64
▁winning	-10.6401
▁mostly	-10.6404
防止	-10.6409
med	-10.6411
其它	-10.6414
ets	-10.6415
ara	-10.6416
义	-10.6418
▁minimum	-10.6419
▁Old	-10.6419
****	-10.642
清洁	-10.6423
▁seat	-10.6425
腿	-10.6426
迷	-10.6426
▁showing	-10.6427
很好	-10.6427
▁Thank	-10.6429
▁chief	-10.6434
详细	-10.6435
顾客	-10.6437
▁Col	-10.6438
的小	-10.6444
同样	-10.6448
检	-10.6449
▁pages	-10.645
prop	-10.6453
cle	-10.6454
▁fuel	-10.6455
装饰	-10.6457
助	-10.6458
vent	-10.6461
▁Fr	-10.6462
不少	-10.6463
PE	-10.6467
▁girls	-10.6467
FF	-10.6468
▁Obama	-10.647
era	-10.647
贷款	-10.6471
cast	-10.6475
▁Show	-10.648
LED	-10.6481
ram	-10.6481
▁births	-10.6482
尽量	-10.6484
夹	-10.6484
一条	-10.6484
当天	-10.6487
喝	-10.6487
rank	-10.6488
▁judge	-10.6489
service	-10.649
▁aspects	-10.649
▁corporate	-10.6492
bu	-10.6492
大型	-10.6494
rid	-10.6495
付款后	-10.6497
本案	-10.6497
▁finish	-10.6499
就能	-10.65
论	-10.6501
▁Note	-10.6502
NAME	-10.6503
▁Charles	-10.6507
hy	-10.6513
▁session	-10.6519
脑	-10.6524
被执行人	-10.6525
▁prove	-10.6526
幸福	-10.6527
▁CEO	-10.6529
▁noted	-10.653
▁Justice	-10.6532
史	-10.6533
▁observed	-10.6536
圆通	-10.654
PP	-10.6542
看下	-10.6543
值得	-10.6543
nes	-10.6547
][	-10.6547
连续	-10.6548
×	-10.6549
培养	-10.6549
▁Army	-10.6552
沟通	-10.6554
更是	-10.6557
道路	-10.6558
▁mention	-10.6558
优先	-10.6559
TV	-10.6561
yn	-10.6567
▁employment	-10.6569
ero	-10.657
小仙女	-10.657
议	-10.6574
▁resolution	-10.6577
▁broad	-10.6588
嘉	-10.6592
命	-10.6592
面对	-10.6597
好了	-10.6599
期待	-10.6601
横	-10.6603
sim	-10.6605
▁print	-10.6606
磨	-10.661
▁Gra	-10.6613
▁coverage	-10.6613
有问题	-10.6614
▁storage	-10.6615
合理	-10.6616
▁assessment	-10.6617
▁index	-10.662
主动	-10.6622
ks	-10.6622
机会	-10.6622
绿色	-10.6623
池	-10.6624
灰	-10.6626
照片	-10.6627
ubuntu	-10.6627
▁Live	-10.6628
农业	-10.663
提醒	-10.6634
▁holding	-10.6637
▁reduced	-10.664
登	-10.664
斗	-10.6644
▁waiting	-10.6645
▁delivery	-10.6648
▁definition	-10.6652
▁Mor	-10.6654
▁acid	-10.6654
▁educational	-10.6655
▁bottom	-10.6656
AA	-10.6658
▁causes	-10.6658
反应	-10.6659
▁thanks	-10.6661
线上	-10.6662
上市	-10.6662
ku	-10.6665
▁experts	-10.6669
▁metal	-10.6669
ding	-10.6671
write	-10.6675
新疆	-10.6676
▁girl	-10.6679
▁wine	-10.6682
厘米	-10.6683
▁evening	-10.6685
SO	-10.6693
）、	-10.6696
▁buildings	-10.6698
▁©	-10.6699
uring	-10.67
▁scientific	-10.6702
▁contain	-10.6702
▁officers	-10.6704
▁waste	-10.6705
▁protected	-10.6706
▁origin	-10.6707
严重	-10.6709
UI	-10.6709
征	-10.671
▁License	-10.6711
ette	-10.6711
▁Lee	-10.6717
▁Twitter	-10.672
这次	-10.6721
scale	-10.6725
float	-10.6732
▁partners	-10.6734
艺	-10.6739
测量	-10.674
严格	-10.6743
专业的	-10.6745
more	-10.6748
充分	-10.6752
大小	-10.6752
▁bed	-10.6754
高度	-10.6756
▁photos	-10.6757
豆	-10.6763
▁markets	-10.6764
▁religion	-10.6766
今日	-10.6771
的亲	-10.6771
℃	-10.6773
的方式	-10.6774
▁medicine	-10.6778
▁corner	-10.678
充	-10.6781
sellerId	-10.6781
垫	-10.6782
▁Joe	-10.6782
▁forced	-10.6787
启动	-10.679
ants	-10.6791
▁switch	-10.6794
lam	-10.6795
▁constant	-10.6798
小姐姐	-10.6798
▁Call	-10.68
▁attend	-10.6801
lab	-10.6804
维修	-10.6804
▁Children	-10.6805
迪	-10.6805
partial	-10.6806
▁plays	-10.6808
ano	-10.681
当时	-10.6811
SM	-10.6813
可能会	-10.6816
nom	-10.6816
▁straight	-10.682
牙	-10.6826
作业	-10.6828
▁realize	-10.6829
柱	-10.6836
喜欢的	-10.6836
招聘	-10.6838
电机	-10.6838
▁gender	-10.6838
▁foundation	-10.6842
恢复	-10.6846
▁Set	-10.6847
▁Port	-10.6849
夫	-10.685
感谢	-10.685
run	-10.6852
自由	-10.6853
unsigned	-10.6856
PL	-10.6859
▁conducted	-10.686
核心	-10.6861
bet	-10.6861
船	-10.6862
产品的	-10.6862
air	-10.6867
▁proud	-10.6868
else	-10.6869
▁external	-10.6869
▁worse	-10.6872
明确	-10.6872
ane	-10.6876
▁spot	-10.6879
▁grew	-10.688
官网	-10.6883
▁agreed	-10.6885
ms	-10.6888
当地	-10.6892
资产	-10.6892
诺	-10.6893
行动	-10.6894
('	-10.6894
▁Middle	-10.6896
▁Wi	-10.6896
xf	-10.6898
▁Network	-10.69
▁Japanese	-10.6901
▁relative	-10.6905
that	-10.6905
移	-10.6909
开放	-10.6909
▁square	-10.691
▁Carolina	-10.691
▁Italian	-10.6914
AI	-10.6917
▁adults	-10.6918
▁register	-10.6923
▁End	-10.6924
▁asking	-10.6925
漏	-10.6926
组成	-10.6926
▁specifically	-10.6927
不锈钢	-10.6931
▁Land	-10.6931
▁accident	-10.6931
如今	-10.6934
都在	-10.6934
▁treated	-10.6934
宇	-10.6937
▁fish	-10.6939
▁keeping	-10.6943
color	-10.6944
lon	-10.6948
深圳	-10.6951
▁shares	-10.6951
场景	-10.6953
▁def	-10.6954
莱	-10.6954
▁attorney	-10.6955
乳	-10.6958
▁domestic	-10.6959
▁pm	-10.6961
▁Mu	-10.6963
▁maximum	-10.6963
黑色	-10.6964
心理	-10.6965
ky	-10.6969
gy	-10.6973
棒	-10.6974
uck	-10.6974
▁professionals	-10.6975
▁Film	-10.6978
AN	-10.6978
务	-10.6979
具备	-10.6979
▁Inter	-10.6982
cd	-10.6983
▁infrastructure	-10.6984
▁fourth	-10.6986
韩	-10.6986
临	-10.6988
▁mine	-10.6988
Seller	-10.699
eo	-10.6992
▁wonder	-10.6992
lie	-10.6992
bf	-10.6995
▁crowd	-10.6995
ode	-10.6996
▁server	-10.7001
范	-10.7003
[]	-10.7005
EX	-10.7005
▁Tri	-10.7007
仙	-10.701
media	-10.7012
息	-10.7012
ola	-10.7014
本身	-10.7014
▁centre	-10.7014
充电	-10.7017
▁Jewish	-10.7018
▁leads	-10.7018
▁Check	-10.7018
编	-10.7018
鲁	-10.7018
yard	-10.7022
▁Em	-10.7023
开启	-10.7025
▁articles	-10.7025
▁cloud	-10.7026
rc	-10.7026
状	-10.7028
消	-10.703
san	-10.703
企	-10.7034
资	-10.7034
▁Sal	-10.7035
效	-10.7035
MM	-10.7038
Con	-10.7039
特点	-10.7046
约定	-10.7048
▁fund	-10.7048
ik	-10.7049
▁portion	-10.7051
生物	-10.7053
lambda	-10.7057
▁revenue	-10.7057
any	-10.7058
▁units	-10.7068
block	-10.707
▁Gold	-10.7073
程序	-10.7075
mathbf	-10.7077
详情	-10.7078
▁href	-10.7078
▁holds	-10.7085
韵达	-10.7085
还没有	-10.7086
结束	-10.7089
▁Hill	-10.7093
▁spring	-10.7093
是在	-10.7093
ates	-10.7095
训练	-10.7096
合适	-10.7098
▁taught	-10.7101
elect	-10.7102
ctx	-10.7104
▁Author	-10.7107
▁vs	-10.7109
▁listen	-10.7113
▁solid	-10.7114
▁entered	-10.7115
Mo	-10.7118
Do	-10.7118
▁Wood	-10.712
▁regulations	-10.712
▁net	-10.7122
▁drugs	-10.7123
锁	-10.7127
接触	-10.7128
》，	-10.713
集中	-10.7131
挑战	-10.7134
之间的	-10.7134
▁Te	-10.7136
朱	-10.7137
▁core	-10.7137
▁agent	-10.7137
util	-10.7139
ria	-10.714
▁strategies	-10.714
vol	-10.714
▁union	-10.7141
▁joint	-10.7145
apple	-10.7147
ett	-10.7147
location	-10.7149
调查	-10.7149
▁Sub	-10.7149
自身	-10.7149
境	-10.7149
als	-10.7151
▁discovered	-10.7151
▁Despite	-10.7154
▁count	-10.7154
▁represent	-10.7154
它的	-10.7157
▁removed	-10.7157
盐	-10.7159
addr	-10.7163
▁farm	-10.7163
管道	-10.7165
▁Division	-10.7165
zz	-10.7168
▁discover	-10.717
▁fixed	-10.717
▁foot	-10.7174
组合	-10.7176
下来	-10.7176
不得	-10.7178
三个	-10.7182
▁healthcare	-10.7183
post	-10.7183
立即	-10.7184
Create	-10.7185
▁temperature	-10.7186
铜	-10.7187
pyx	-10.7188
壁	-10.7189
▁plants	-10.7189
lot	-10.7191
寄	-10.7192
▁dollars	-10.7194
ace	-10.7195
BO	-10.7197
收货	-10.7197
▁editor	-10.7198
▁facility	-10.7201
▁hotel	-10.7202
▁investigation	-10.7203
CD	-10.7203
spir	-10.7204
愿	-10.7204
性的	-10.7204
▁recognize	-10.7205
DS	-10.7206
财务	-10.7206
ming	-10.721
运用	-10.7217
上面	-10.7222
▁diet	-10.7222
▁forget	-10.7222
的情况下	-10.7222
▁topic	-10.7225
▁matters	-10.7226
lation	-10.7228
AF	-10.7231
care	-10.7236
生命	-10.7236
▁formed	-10.7236
▁description	-10.7237
▁Instead	-10.7238
hal	-10.7241
更好的	-10.7245
CP	-10.7246
▁concerned	-10.725
爆	-10.7252
相比	-10.7252
DR	-10.7252
section	-10.7253
check	-10.7256
泉	-10.7258
▁Georgia	-10.7258
▁knows	-10.7259
▁participants	-10.7261
▁Play	-10.7262
快乐	-10.7264
summary	-10.7264
左	-10.7265
魔	-10.7268
tar	-10.727
Array	-10.727
▁button	-10.727
福利	-10.7271
▁recognized	-10.7277
▁Hospital	-10.7277
}^	-10.7282
▁technologies	-10.7285
▁herself	-10.7285
break	-10.7286
被告人	-10.7286
▁/:-	-10.7287
▁grant	-10.7287
body	-10.7287
马上	-10.7289
END	-10.7291
▁Ph	-10.7292
▁Gar	-10.7295
猫	-10.7298
▁thank	-10.7299
执	-10.7299
With	-10.7302
丁	-10.7304
▁Site	-10.7304
▁Does	-10.7305
▁fellow	-10.7305
There	-10.7306
▁`	-10.7307
Tech	-10.7309
材	-10.7309
oul	-10.7309
▁directed	-10.7311
▁Games	-10.7312
gan	-10.7312
matic	-10.7313
▁authorities	-10.7313
▁runs	-10.7315
鲜	-10.7315
岛	-10.7316
tz	-10.7317
▁Ana	-10.7317
▁aid	-10.7323
Color	-10.7324
▁recovery	-10.7326
some	-10.7328
▁welcome	-10.7328
▁soft	-10.7329
依法	-10.7329
森	-10.7334
▁border	-10.7335
raw	-10.7335
家具	-10.7337
▁monitor	-10.7338
丹	-10.7338
▁native	-10.7347
顿	-10.7354
▁fill	-10.7355
rie	-10.7361
As	-10.7362
phone	-10.7362
扬	-10.7365
▁winter	-10.7371
▁owners	-10.7371
▁library	-10.7372
def	-10.7374
DI	-10.7375
▁greatest	-10.7375
饭	-10.7376
conf	-10.7378
娱乐	-10.7378
营养	-10.7379
阴	-10.7381
hand	-10.7383
中通	-10.7385
▁pieces	-10.7385
乱	-10.7385
▁extent	-10.7388
芯	-10.739
让您	-10.739
准确	-10.7391
有没有	-10.7391
▁Johnson	-10.7395
年的	-10.7396
EE	-10.7399
od	-10.7403
▁studio	-10.7405
vert	-10.7405
▁willing	-10.7408
还要	-10.7408
磁	-10.7408
启	-10.7413
▁fields	-10.7416
邮政	-10.7416
烧	-10.7418
▁protein	-10.7418
▁Spanish	-10.7418
▁episode	-10.7419
St	-10.742
▁watching	-10.7421
依据	-10.7424
°	-10.7425
▁emergency	-10.7425
评	-10.7426
售	-10.7426
hood	-10.7428
让人	-10.7429
▁risks	-10.7436
▁sister	-10.7439
mor	-10.7447
Ro	-10.7448
竞争	-10.7452
类型	-10.7453
▁Whether	-10.7454
过来	-10.7455
代理	-10.7456
室内	-10.7459
伊	-10.7461
鼓励	-10.7462
▁revealed	-10.7463
▁fees	-10.7464
SI	-10.7465
泡	-10.7467
▁respectively	-10.7473
可是	-10.7474
冬	-10.7474
▁approved	-10.7475
▁wild	-10.7475
在的哦	-10.7477
▁surgery	-10.7479
ou	-10.7479
/:^$^	-10.748
cb	-10.748
shi	-10.7481
▁labor	-10.7486
header	-10.7487
▁fell	-10.7489
镜	-10.749
▁supposed	-10.7491
▁calling	-10.7494
放心	-10.7494
▁UN	-10.7497
▁Food	-10.75
▁finance	-10.7502
▁express	-10.7504
▁launched	-10.7507
墨	-10.7516
丰富	-10.7517
▁Executive	-10.7517
那些	-10.7519
多种	-10.7519
▁counter	-10.7519
vin	-10.7519
▁familiar	-10.7521
:(	-10.7523
xa	-10.7527
认证	-10.7528
▁element	-10.7529
▁height	-10.753
智慧	-10.7532
▁believed	-10.7533
裤子	-10.7533
HR	-10.7536
推出	-10.7537
疾病	-10.7541
result	-10.7542
▁stick	-10.7542
▁serving	-10.7546
铝	-10.7548
▁comfortable	-10.7548
▁techniques	-10.7549
IM	-10.7551
event	-10.7552
ged	-10.7552
▁division	-10.7553
XFF	-10.7559
▁domain	-10.756
Text	-10.756
菌	-10.7561
出了	-10.7562
▁Supreme	-10.7567
▁debate	-10.7567
▁Ed	-10.7574
▁notes	-10.7576
▁bright	-10.7578
▁politics	-10.7579
▁Previous	-10.758
▁onto	-10.758
Item	-10.7582
宽松	-10.7583
豪	-10.7585
edit	-10.7587
▁contribute	-10.7591
sch	-10.7592
▁allowing	-10.7594
▁Young	-10.7597
▁excited	-10.7597
pc	-10.7597
▁Republic	-10.7601
输出	-10.7607
tri	-10.7608
Be	-10.7609
▁implementation	-10.761
掌握	-10.761
▁=>	-10.7611
演	-10.7612
令	-10.7612
▁prison	-10.7612
CT	-10.7614
”)	-10.7614
▁participate	-10.7615
▁pool	-10.7619
当前	-10.762
My	-10.762
▁template	-10.7621
mathrm	-10.7622
基于	-10.7623
math	-10.7623
考生	-10.7624
▁Bu	-10.7624
一家	-10.7625
ada	-10.7627
▁differences	-10.7627
you	-10.7632
▁expensive	-10.7634
▁Series	-10.7639
广泛	-10.7643
▁shift	-10.7644
▁none	-10.7644
Path	-10.7645
fl	-10.7646
fold	-10.7648
▁CA	-10.7652
支付宝	-10.7653
获取	-10.7656
▁Secretary	-10.7657
current	-10.7659
une	-10.766
▁expert	-10.7666
▁putting	-10.7667
▁reform	-10.7669
清楚	-10.767
象	-10.7678
改善	-10.768
gram	-10.768
▁chair	-10.7684
▁Right	-10.7684
▁Though	-10.7686
▁deaths	-10.7686
虎	-10.7689
▁appearance	-10.7691
的大	-10.7692
▁founded	-10.7692
等你	-10.7697
报道	-10.7697
▁worry	-10.7697
良好的	-10.77
▁applicable	-10.77
▁sequence	-10.7703
▁innovation	-10.7706
▁Back	-10.7706
洋	-10.7707
Class	-10.7711
▁fashion	-10.7713
输入	-10.7714
▁£	-10.7714
同学	-10.7715
static	-10.7724
ii	-10.7724
▁studied	-10.7726
▁guy	-10.7727
▁joy	-10.7728
buffer	-10.7729
▁broke	-10.7732
露	-10.7735
凉	-10.7736
习惯	-10.7738
▁Special	-10.7739
救	-10.7741
▁boy	-10.7741
fig	-10.7744
▁referred	-10.7745
不好	-10.7747
▁Add	-10.7748
▁Mil	-10.7748
▁Senate	-10.775
渠道	-10.7752
▁Scott	-10.7753
ball	-10.7754
▁signal	-10.7755
hip	-10.7757
▁Finally	-10.7764
▁island	-10.7765
▁Only	-10.7766
增强	-10.7767
CM	-10.7769
xi	-10.777
▁Phil	-10.7776
借	-10.7781
LL	-10.7785
日常	-10.7785
PT	-10.7787
Message	-10.7787
NI	-10.7787
▁Nor	-10.7793
ale	-10.7794
▁bus	-10.7796
▁accounts	-10.7798
！！！	-10.7798
▁recording	-10.7799
签订	-10.7801
止	-10.7802
▁^_^	-10.7802
▁regional	-10.7805
▁properly	-10.781
So	-10.7812
▁adding	-10.7814
动态	-10.7815
驱动	-10.782
▁Spirit	-10.7822
▁Sir	-10.7823
▁throw	-10.7824
ado	-10.7824
▁Light	-10.7825
▁Cre	-10.7829
▁surrounding	-10.7833
▁wood	-10.7835
▁magazine	-10.7835
沿	-10.7843
▁spoke	-10.7844
采取	-10.7844
property	-10.7849
莫	-10.7851
的情况	-10.7853
不足	-10.7855
▁Bel	-10.7857
▁persons	-10.7858
▁Energy	-10.786
▁Gen	-10.786
▁Police	-10.7862
些	-10.7865
sheet	-10.7865
▁talent	-10.7866
限制	-10.7868
▁passion	-10.7868
▁seeking	-10.7868
▁murder	-10.787
惠	-10.7873
凯	-10.7873
母	-10.7874
▁Festival	-10.7875
高效	-10.7875
▁explained	-10.7875
CON	-10.7877
链	-10.7878
塑料	-10.7881
▁cycle	-10.7883
bus	-10.7884
后的	-10.7889
诚	-10.7889
搜索	-10.7894
密封	-10.7895
▁depending	-10.7895
▁accepted	-10.7897
预计	-10.7899
▁agencies	-10.79
▁Amazon	-10.7901
采购	-10.7903
▁Hol	-10.7904
▁alcohol	-10.7906
▁Ser	-10.7907
cor	-10.7908
▁guard	-10.7908
heta	-10.7909
)\	-10.7909
▁Ireland	-10.7911
dom	-10.7911
小学	-10.7913
认定	-10.7916
忙	-10.7919
▁speaking	-10.7919
▁((	-10.792
麻烦亲	-10.792
▁establish	-10.7921
▁Valley	-10.7921
action	-10.7922
dr	-10.7925
Update	-10.7928
nic	-10.7928
▁et	-10.7931
奖励	-10.7932
seller	-10.7933
！”	-10.7934
▁Know	-10.7935
买家	-10.7936
sign	-10.7937
谷	-10.7937
function	-10.7939
比例	-10.794
股票	-10.7941
实践	-10.7941
NC	-10.7943
Link	-10.7948
末	-10.7949
▁smart	-10.7952
ili	-10.7952
gh	-10.7953
▁supporting	-10.7956
赠送	-10.7957
肥	-10.7959
▁investors	-10.7961
首页	-10.7961
▁Holy	-10.7962
▁prepare	-10.7964
▁cards	-10.7964
oo	-10.7967
mac	-10.7968
销量	-10.797
栋	-10.797
功	-10.7971
big	-10.7971
isation	-10.7974
▁fee	-10.7976
▁cap	-10.7979
描述	-10.798
dec	-10.7982
润	-10.7982
▁remained	-10.7983
谢	-10.7983
tes	-10.7987
▁emotional	-10.7988
▁animal	-10.7988
▁indeed	-10.7989
▁hundred	-10.7989
▁pictures	-10.799
瓦	-10.7991
▁wear	-10.7993
▁Joseph	-10.7994
通常	-10.7995
发票	-10.7999
赞	-10.8001
全新	-10.8002
施	-10.8002
▁procedure	-10.8003
fully	-10.8005
▁statements	-10.8005
羊	-10.8006
mes	-10.8006
▁Summer	-10.8006
试验	-10.8008
公开	-10.8009
eu	-10.8009
▁Father	-10.8011
▁dry	-10.8011
政	-10.8012
▁receiving	-10.8012
▁boat	-10.8014
▁argument	-10.8015
itch	-10.8017
▁Awards	-10.8017
Int	-10.8019
▁assume	-10.8022
▁Conference	-10.8022
▁earned	-10.8023
广东	-10.8028
fd	-10.8028
ston	-10.8029
▁discussed	-10.803
▁appointed	-10.803
▁Es	-10.8035
采	-10.8036
投入	-10.8041
利息	-10.8045
荣	-10.805
▁researchers	-10.805
▁elected	-10.8058
pot	-10.8059
FL	-10.8059
▁relatively	-10.8062
^{-	-10.8062
▁Pu	-10.8064
井	-10.8065
▁dance	-10.8067
Request	-10.8068
On	-10.8068
▁combined	-10.807
PRO	-10.8076
温馨提示	-10.8076
面料	-10.8077
恒	-10.8078
▁campus	-10.8079
▁Ob	-10.8084
有什么问题	-10.8084
▁minister	-10.8085
天气	-10.8086
NS	-10.809
All	-10.8091
振	-10.8093
ls	-10.8096
dependent	-10.8097
历	-10.8103
▁Italy	-10.8103
▁concern	-10.8106
的支持	-10.8108
ew	-10.811
的设计	-10.811
装备	-10.8111
▁registered	-10.8111
ition	-10.8113
滴	-10.8115
的作用	-10.8115
LP	-10.8118
▁forest	-10.812
▁nuclear	-10.8124
▁Yet	-10.8131
ese	-10.8131
▁plenty	-10.8132
ail	-10.8135
▁camera	-10.8138
▁reasonable	-10.8138
同意	-10.8139
▁consideration	-10.814
办公	-10.8142
挺	-10.8144
的价格	-10.8147
资格	-10.8149
Content	-10.8152
截图	-10.8155
如果您	-10.8158
je	-10.8158
▁push	-10.8162
独立	-10.8162
了吗	-10.8166
App	-10.817
LO	-10.817
▁disk	-10.8174
抓	-10.8177
gue	-10.8178
)	-10.8178
▁Boston	-10.8179
cons	-10.8179
▁Civil	-10.818
Al	-10.818
▁Jack	-10.8181
基地	-10.8183
Device	-10.8183
phy	-10.8186
昌	-10.8186
HD	-10.8187
home	-10.8189
处于	-10.8189
模块	-10.8189
lem	-10.819
人民币	-10.8191
illa	-10.8192
▁grade	-10.8194
▁estimated	-10.8196
▁aim	-10.8197
▁brings	-10.8201
▁Code	-10.8202
▁knowing	-10.8205
争	-10.8206
▁sin	-10.821
ui	-10.8211
▁ride	-10.8212
▁lay	-10.8215
▁Queen	-10.8216
▁standing	-10.8217
？”	-10.8219
▁fundamental	-10.822
公司的	-10.822
有什么顾虑吗	-10.8223
▁Ukraine	-10.8223
申通	-10.8224
大量	-10.8227
评论	-10.8229
▁courses	-10.8229
▁movies	-10.823
▁sounds	-10.823
帮忙	-10.8231
▁Saint	-10.8233
▁classic	-10.8235
Max	-10.8236
深入	-10.8237
▁Website	-10.8238
▁Van	-10.8239
判决	-10.8241
▁selling	-10.8242
勤	-10.8245
hill	-10.8245
冠	-10.8245
▁permission	-10.8246
▁die	-10.8248
ware	-10.8249
wise	-10.825
下降	-10.825
▁filled	-10.8251
▁cent	-10.8254
医	-10.8257
▁installation	-10.8258
档	-10.8259
▁channel	-10.826
剑	-10.826
▁severe	-10.8261
角色	-10.8263
认真	-10.8265
▁refer	-10.8266
▁settings	-10.8267
DC	-10.8268
";	-10.8268
的工作	-10.8268
举行	-10.827
▁Him	-10.8271
稳	-10.8272
▁Kingdom	-10.8274
一致	-10.8276
▁column	-10.8278
msg	-10.8278
▁sample	-10.8279
▁buying	-10.8283
哒	-10.8283
麻	-10.8283
aged	-10.8287
终	-10.8291
▁†	-10.8291
lus	-10.8294
TC	-10.8297
▁museum	-10.83
▁reviews	-10.8311
lum	-10.8311
塞	-10.8312
在这里	-10.8313
▁beauty	-10.8313
HS	-10.8315
,	-10.8317
贝	-10.8318
▁industrial	-10.8318
func	-10.832
商家	-10.8322
▁happening	-10.8322
网友	-10.8323
不好意思	-10.8325
mg	-10.8327
炉	-10.8327
_\	-10.8329
Ch	-10.8331
VI	-10.8334
▁Bra	-10.8334
▁sweet	-10.8335
一张	-10.8336
New	-10.8344
最好	-10.8344
tree	-10.8347
强度	-10.8348
▁entirely	-10.835
▁unsigned	-10.8351
诉	-10.8352
▁tells	-10.8355
▁Ya	-10.8355
元的	-10.8356
怎么样	-10.8356
▁Louis	-10.8357
缘	-10.8359
UN	-10.8359
▁NOT	-10.8363
▁Pan	-10.8368
意识	-10.8369
▁Tax	-10.8369
▁collect	-10.8374
▁engineering	-10.8376
▁Son	-10.8376
▁confidence	-10.8376
rick	-10.8378
oon	-10.8378
包含	-10.8381
▁edition	-10.8384
▁update	-10.8385
苗	-10.8387
▁resource	-10.8388
还没有收到您的订单	-10.8388
▁decade	-10.8389
▁trees	-10.839
▁provider	-10.8399
▁awarded	-10.84
账号	-10.8403
▁Mike	-10.8405
有任何疑问欢迎咨询我们	-10.8405
有了	-10.8406
known	-10.8408
▁guarantee	-10.8413
收到货	-10.8413
meta	-10.8413
▁Centre	-10.8415
▁cars	-10.8415
拆	-10.8416
▁chosen	-10.842
▁scheme	-10.8423
泽	-10.8423
rush	-10.8426
▁originally	-10.8428
山东	-10.8431
▁privacy	-10.8431
▁teach	-10.8432
clock	-10.8433
ris	-10.8436
card	-10.8438
予以	-10.8438
▁tests	-10.844
▁considering	-10.844
废	-10.8441
▁reflect	-10.8448
第四	-10.8449
▁league	-10.845
delta	-10.845
为主	-10.8454
▁Au	-10.8461
tur	-10.8469
炎	-10.8471
▁candidate	-10.8471
cu	-10.8473
涨	-10.8473
▁motion	-10.8474
群众	-10.8474
▁signs	-10.8474
▁CO	-10.8476
如果您对这次购物体验满意	-10.8478
▁comfort	-10.8478
▁Head	-10.8479
Sec	-10.8482
▁Thi	-10.8483
混	-10.8483
▁lots	-10.8483
有哪些	-10.8487
页	-10.8488
宜	-10.8488
伴随左右	-10.8491
我们家	-10.8492
参	-10.8494
unit	-10.8494
一路相知	-10.8495
做出	-10.8496
广大	-10.8497
▁roof	-10.8497
▁rent	-10.8498
▁positions	-10.8498
喔	-10.85
私	-10.8501
▁Sp	-10.8505
▁Cho	-10.851
本文	-10.8511
sigma	-10.8512
▁walking	-10.8513
▁musical	-10.8513
mag	-10.8513
钟	-10.8514
锅	-10.8514
重庆	-10.8516
▁ancient	-10.8516
▁Source	-10.8519
ini	-10.8519
▁solve	-10.8522
▁bound	-10.8523
▁Pay	-10.8523
君	-10.8525
双十一	-10.8527
家居	-10.8528
▁generate	-10.8528
探	-10.853
▁prefer	-10.8531
▁Han	-10.8532
阵	-10.8536
窗	-10.8537
有人	-10.8539
还能	-10.8539
gamma	-10.854
天天	-10.8541
bed	-10.8541
▁taxes	-10.8542
公告	-10.8542
▁components	-10.8543
WI	-10.8543
涂	-10.8545
▁starts	-10.8548
▁Char	-10.8549
range	-10.8551
aff	-10.8554
大部分	-10.8556
戴	-10.8557
▁Vo	-10.8561
Th	-10.8562
HE	-10.8563
▁ran	-10.8567
发挥	-10.8567
▁Iran	-10.8569
真正	-10.8575
rant	-10.8577
Ma	-10.8578
最大的	-10.8579
▁gun	-10.8581
ib	-10.8582
▁charges	-10.8582
大的	-10.8583
create	-10.8585
年度	-10.8585
电源	-10.8586
▁legislation	-10.8589
意义	-10.8589
ory	-10.859
▁representation	-10.8591
▁strike	-10.8592
得知您的宝贝已经安全抵达	-10.8592
居民	-10.8592
财产	-10.8592
▁consumer	-10.8595
▁sitting	-10.8599
▁Trust	-10.8602
▁attended	-10.8603
mas	-10.8604
figure	-10.8605
▁Bre	-10.8605
▁broken	-10.8605
star	-10.8605
延	-10.8608
FT	-10.8608
▁videos	-10.8613
ses	-10.8615
▁sat	-10.8618
PD	-10.8618
大概	-10.8621
外观	-10.8621
kg	-10.8623
▁engine	-10.8624
▁absolutely	-10.8624
填写	-10.8626
事实	-10.8631
冠军	-10.8632
▁Using	-10.8634
main	-10.8635
▁planet	-10.8636
RI	-10.8638
寒	-10.8638
pu	-10.8638
ura	-10.864
comp	-10.8642
▁Agreement	-10.8642
文明	-10.8644
珠	-10.8645
she	-10.8646
正确	-10.8649
电动	-10.8649
▁arrived	-10.865
▁conclusion	-10.865
肯定	-10.8652
content	-10.8653
mark	-10.8653
▁draft	-10.8654
。**	-10.8655
++)	-10.8656
设有	-10.8657
使得	-10.8657
Log	-10.8658
▁Fire	-10.8658
▁singer	-10.8658
▁suffering	-10.8661
享	-10.8664
▁neighborhood	-10.8664
期待得到您的评价鼓励	-10.8666
▁stream	-10.8666
▁dangerous	-10.8668
status	-10.8668
▁hurt	-10.867
▁Mer	-10.8672
atory	-10.8674
▁Financial	-10.8674
stack	-10.8674
▁Henry	-10.8676
”、“	-10.8676
▁这款	-10.8677
而是	-10.8677
互动	-10.8681
Is	-10.8681
天左右	-10.8682
▁Chris	-10.8684
舞	-10.8689
▁Shi	-10.8693
▁collected	-10.8694
▁consent	-10.8697
▁Michigan	-10.8698
粉丝	-10.8698
thy	-10.8702
碳	-10.8703
宫	-10.8703
污染	-10.8705
ama	-10.8711
▁adjust	-10.8712
▁rare	-10.8712
农村	-10.8712
别人	-10.8713
Context	-10.8714
让你	-10.8714
哪里	-10.8718
▁flat	-10.872
了一个	-10.8721
bal	-10.8722
Pa	-10.8723
▁collaboration	-10.8725
各类	-10.8728
▁impossible	-10.8728
▁literature	-10.8729
拖	-10.873
Box	-10.8731
汤	-10.8731
local	-10.8732
▁reduction	-10.8732
▁helpful	-10.8732
尤其是	-10.8736
▁sp	-10.8737
BB	-10.8737
京	-10.8738
▁Library	-10.8739
附	-10.8741
步骤	-10.8741
▁Studies	-10.8742
篇	-10.8744
精彩	-10.8744
FS	-10.8747
痛	-10.8749
白色	-10.875
不需要	-10.8751
岗	-10.8751
伦	-10.8752
工作人员	-10.8753
承	-10.8754
哥	-10.8755
形象	-10.8765
tmp	-10.8765
逐渐	-10.8765
▁filed	-10.8767
▁websites	-10.8768
American	-10.8771
▁harm	-10.8772
联赛	-10.8772
cdot	-10.8772
罪	-10.8773
优秀	-10.8774
▁Daniel	-10.8782
▁vehicles	-10.8782
然而	-10.8783
第一时间	-10.8786
▁plus	-10.8786
▁unable	-10.8786
dir	-10.8789
▁tournament	-10.879
经典	-10.8791
▁bringing	-10.8792
order	-10.8793
▁export	-10.8795
▁remaining	-10.8795
▁examples	-10.8796
obj	-10.8796
为您服务	-10.8797
▁extended	-10.8797
▁intelligence	-10.8801
mann	-10.8801
▁virus	-10.8802
公共	-10.8802
▁pet	-10.8803
近日	-10.8806
症	-10.8808
$$	-10.8809
不错	-10.8811
▁disc	-10.8813
晚上	-10.8816
▁expressed	-10.8816
ATION	-10.8817
making	-10.8818
▁Way	-10.882
化学	-10.8824
colon	-10.8825
垃圾	-10.8826
That	-10.8827
▁expand	-10.8828
▁sight	-10.8829
▁Anti	-10.8831
▁sets	-10.8832
▁effectively	-10.8833
漆	-10.8835
tile	-10.8836
劳动	-10.8837
更换	-10.8839
▁guys	-10.8839
▁stopped	-10.884
▁valuable	-10.884
浮	-10.8842
▁frequently	-10.8843
办法	-10.8845
▁Frank	-10.8847
Buffer	-10.8848
严	-10.8849
xc	-10.8853
▁paying	-10.8854
▁Order	-10.8855
▁engage	-10.8858
tradeID	-10.8858
时候	-10.886
ising	-10.886
一场	-10.8864
★	-10.8864
VA	-10.8864
е	-10.8866
▁competitive	-10.8866
▁providers	-10.8867
▁hundreds	-10.8867
▁flu	-10.8868
Block	-10.8869
site	-10.8869
Status	-10.8873
▁OS	-10.888
举办	-10.888
积	-10.8881
▁essay	-10.8884
▁occurred	-10.8886
ome	-10.8887
▁panel	-10.8895
▁database	-10.8897
▁recommended	-10.8897
麦	-10.8897
洛	-10.8898
die	-10.89
资讯	-10.8901
▁Tour	-10.8903
shed	-10.8905
设施	-10.8906
gra	-10.8909
益	-10.891
▁Additionally	-10.891
cp	-10.8913
非常乐意帮您解决的哈	-10.8913
bat	-10.8915
▁relations	-10.8916
ele	-10.8917
开关	-10.8918
诉讼	-10.8919
▁bought	-10.8922
▁partition	-10.8925
▁visitors	-10.8926
▁electric	-10.8926
▁contrast	-10.8928
▁Bio	-10.8932
▁Class	-10.8932
▁pack	-10.8936
NE	-10.8937
under	-10.8938
crypt	-10.8938
pat	-10.8939
ancy	-10.8943
▁Support	-10.8943
机器	-10.8946
故事	-10.8946
▁minor	-10.8948
▁Find	-10.8952
▁Asian	-10.8955
文字	-10.8956
域	-10.8962
fla	-10.8963
▁tips	-10.8963
aging	-10.8964
▁represented	-10.8966
dies	-10.8966
▁interface	-10.897
▁exciting	-10.897
cache	-10.8971
统计	-10.8973
▁describe	-10.8973
▁resulting	-10.8976
▁par	-10.898
version	-10.898
▁Miss	-10.8984
感受	-10.8986
啥	-10.8987
ians	-10.8988
工厂	-10.8991
▁enjoyed	-10.8992
trace	-10.8992
▁presentation	-10.8995
▁plot	-10.8995
▁massive	-10.8996
▁leaves	-10.8997
ena	-10.8998
AB	-10.8999
平均	-10.9
▁payments	-10.9002
nie	-10.9005
▁Officer	-10.9005
▁destination	-10.9005
▁detailed	-10.9008
▁windows	-10.9011
ros	-10.9013
▁degrees	-10.9014
TR	-10.9016
FI	-10.9017
真实	-10.9019
▁Article	-10.9019
▁comprehensive	-10.902
▁possibly	-10.9021
WA	-10.9026
IV	-10.9026
▁strategic	-10.9026
下午	-10.9027
arm	-10.9029
而言	-10.9032
▁Maybe	-10.9032
▁solar	-10.9032
上新	-10.9033
▁Greek	-10.9033
还在	-10.9034
防水	-10.9037
高端	-10.9037
Property	-10.9038
隆	-10.9038
▁earn	-10.9038
▁serves	-10.9039
ct	-10.9039
▁begins	-10.9042
人工	-10.9043
▁hate	-10.9045
▁diverse	-10.9046
▁county	-10.9047
▁Three	-10.9047
▁practical	-10.9048
▁Beach	-10.9048
▁pen	-10.905
公里	-10.9054
▁telling	-10.9056
▁Jim	-10.9061
▁Through	-10.9064
▁Southern	-10.9065
迅速	-10.9066
rich	-10.9069
Test	-10.9069
覆盖	-10.907
▁landscape	-10.907
突破	-10.9071
▁appointment	-10.9073
▁deposit	-10.9074
腰	-10.9074
制度	-10.9075
高速	-10.9075
植物	-10.9077
毕竟	-10.9081
▁taste	-10.9082
▁Ki	-10.9082
规格	-10.9086
▁category	-10.9086
▁extension	-10.9088
决	-10.9089
pad	-10.9089
空调	-10.9091
▁coffee	-10.9096
进口	-10.9096
童	-10.9098
某某	-10.9098
▁typedef	-10.9099
众多	-10.9103
▁improved	-10.9105
▁expenses	-10.9106
吊	-10.9107
But	-10.9112
协会	-10.9112
陆	-10.9114
▁feels	-10.9115
lig	-10.9115
事故	-10.9121
cher	-10.9123
父母	-10.9128
▁小店收到飞鸽传书	-10.9128
kit	-10.9129
sponsor	-10.9133
▁script	-10.9133
环节	-10.9136
顺利	-10.9137
ich	-10.9138
▁suggested	-10.9142
利率	-10.9142
的宝贝	-10.9142
▁·	-10.9144
实施例	-10.9147
还没	-10.9149
邦	-10.9149
▁Mari	-10.9153
rev	-10.9157
▁Sports	-10.9158
▁possibility	-10.9158
▁slightly	-10.9158
▁attacks	-10.9159
拼	-10.916
RC	-10.916
▁Building	-10.916
涉及	-10.9164
义务	-10.917
预售	-10.9171
por	-10.9173
▁motor	-10.9174
▁Ten	-10.9175
TX	-10.9175
▁Jones	-10.9176
投资者	-10.9178
医生	-10.918
人生	-10.9181
▁twenty	-10.9182
业绩	-10.9189
▁boost	-10.919
unk	-10.9198
晶	-10.9199
它们	-10.92
▁updated	-10.9201
▁glass	-10.9201
困难	-10.9202
▁successfully	-10.9205
▁locations	-10.9208
简	-10.9209
这个是	-10.9209
even	-10.921
▁inspired	-10.9211
Le	-10.9212
会在	-10.9212
公布	-10.9215
完善	-10.9215
对方	-10.9217
▁tissue	-10.9217
ani	-10.9218
▁Ac	-10.9223
郭	-10.9224
zi	-10.9227
xe	-10.9228
▁Town	-10.9228
▁Les	-10.9229
vec	-10.9229
▁maintenance	-10.923
ake	-10.923
配件	-10.9231
▁lawyer	-10.9234
▁mortgage	-10.9236
▁Bal	-10.9236
登录	-10.9239
▁assert	-10.9239
里的	-10.924
▁Andrew	-10.9242
▁kill	-10.9244
▁Op	-10.9244
▁gap	-10.9251
▁objects	-10.9251
};	-10.9252
租	-10.9253
ERROR	-10.9254
我这边	-10.9259
Delta	-10.926
▁truck	-10.9261
MT	-10.9263
dar	-10.9263
▁bodies	-10.9264
育	-10.9265
▁bridge	-10.9267
▁existence	-10.9267
▁illegal	-10.9268
甜	-10.927
▁moral	-10.9271
▁imagine	-10.9276
▁surprise	-10.9277
▁charged	-10.9277
▁medium	-10.9279
▁extensive	-10.9281
亦	-10.9281
▁framework	-10.9282
▁represents	-10.9283
▁latter	-10.9283
logy	-10.9286
抱歉	-10.9286
▁password	-10.9287
entry	-10.9291
状况	-10.9293
call	-10.9293
▁profile	-10.9293
▁procedures	-10.9295
rit	-10.9296
▁Game	-10.9296
shoot	-10.9296
qu	-10.9298
doc	-10.9301
▁worldwide	-10.9301
▁loans	-10.9302
规则	-10.9308
▁Word	-10.9309
绝对	-10.931
pet	-10.9311
休闲	-10.9311
▁writers	-10.9312
-\	-10.9313
▁structures	-10.9313
hole	-10.9316
ened	-10.9317
▁principles	-10.9319
▁Sometimes	-10.932
▁Force	-10.932
are	-10.9323
▁Prime	-10.9324
有所	-10.9327
粒	-10.9329
肌肤	-10.933
▁replace	-10.9332
▁folder	-10.9334
▁percentage	-10.9334
紫	-10.9338
他们的	-10.934
▁primarily	-10.9342
power	-10.9343
▁threat	-10.9345
认可	-10.9345
▁relation	-10.9346
cer	-10.9346
▁Has	-10.9349
成都	-10.9354
▁casino	-10.9355
怕	-10.9355
▁wealth	-10.9355
圣	-10.9356
▁consumers	-10.9358
▁Korea	-10.936
▁delivered	-10.936
▁shop	-10.9362
▁kitchen	-10.9363
岩	-10.9365
▁favor	-10.9365
exec	-10.9368
汉族	-10.9371
Code	-10.9372
EA	-10.9374
acc	-10.9379
筒	-10.9381
怎样	-10.9382
▁ratio	-10.9385
▁stone	-10.9386
▁programme	-10.9386
▁iPhone	-10.9388
▁granted	-10.939
ography	-10.9391
洪	-10.9392
▁sentence	-10.9393
▁Val	-10.9394
念	-10.9394
serv	-10.9395
▁goods	-10.9395
rum	-10.9396
小时内	-10.9397
▁},	-10.9399
args	-10.9399
有很多	-10.94
▁partnership	-10.94
corr	-10.94
反馈	-10.94
消防	-10.9402
vector	-10.9403
▁Wall	-10.9404
▁awareness	-10.9404
网上	-10.9407
▁Such	-10.9408
▁Administration	-10.9408
▁posts	-10.941
▁operator	-10.941
▁honest	-10.9413
▁mark	-10.9415
的重要	-10.9419
▁yes	-10.942
▁exception	-10.9422
机器人	-10.9424
▁menu	-10.9427
circle	-10.9427
LS	-10.9428
案例	-10.9429
▁provision	-10.9429
CF	-10.943
▁Students	-10.9432
dic	-10.9433
▁Mrs	-10.9433
real	-10.9434
退回	-10.9435
▁segment	-10.9435
▁retail	-10.9439
凡	-10.9439
证券	-10.944
▁supplement	-10.9445
▁exhibition	-10.9447
▁zero	-10.9448
▁ultimately	-10.9448
▁judgment	-10.9448
▁CD	-10.945
▁authors	-10.945
▁readers	-10.9453
家里	-10.9453
BS	-10.9455
try	-10.9455
▁tough	-10.9457
▁delay	-10.9458
我想	-10.946
物质	-10.9461
苦	-10.9463
oke	-10.9463
力量	-10.9463
CU	-10.9465
Unit	-10.9467
▁carbon	-10.9471
▁Ohio	-10.9471
including	-10.9471
请问	-10.9473
rated	-10.9473
▁featured	-10.9474
途	-10.9474
▁exposure	-10.9475
句	-10.9476
回收	-10.9476
老板	-10.9482
pass	-10.9483
▁caught	-10.9483
砂	-10.9484
加热	-10.9484
rot	-10.9484
平时	-10.9486
eng	-10.9487
放在	-10.9487
特别是	-10.9491
分类	-10.9493
owned	-10.9494
认识	-10.9496
flags	-10.9498
可以给我说下的呢	-10.9499
赢	-10.9504
满意的话	-10.9505
刚刚	-10.9505
▁audio	-10.9506
▁twice	-10.9506
▁wave	-10.9508
嗯呢	-10.9508
▁Medicine	-10.9511
▁Tal	-10.9512
tun	-10.9517
bel	-10.9521
▁topics	-10.9524
▁beat	-10.9525
券	-10.9525
lim	-10.9526
hang	-10.9527
锋	-10.9529
▁arm	-10.9529
洞	-10.953
尽管	-10.9531
▁Cross	-10.9532
​	-10.9533
▁Republican	-10.9533
cular	-10.9534
▁sum	-10.9534
白癜风	-10.9538
OT	-10.9538
*}	-10.9538
eta	-10.9539
提示	-10.9539
▁struggle	-10.9543
语言	-10.9544
▁array	-10.9544
▁Digital	-10.9545
image	-10.9545
的服务	-10.9546
ali	-10.9547
▁Francisco	-10.9551
az	-10.9553
NULL	-10.9554
▁regularly	-10.9555
BL	-10.9555
▁manufacturing	-10.9558
▁acting	-10.9558
ctor	-10.956
▁pattern	-10.9564
quit	-10.9564
tim	-10.9565
尘	-10.9567
▁faculty	-10.9567
anger	-10.9567
▁AM	-10.9569
lysis	-10.957
融	-10.9574
▁afford	-10.9574
默认	-10.9578
闪	-10.9578
▁Corporation	-10.9579
▁planned	-10.9584
的同时	-10.9585
quality	-10.9587
ought	-10.959
浙江	-10.9591
jpg	-10.9591
Service	-10.9592
DB	-10.9594
行政	-10.9595
▁null	-10.9595
lar	-10.9599
▁Change	-10.9599
负责人	-10.9599
aa	-10.9602
布局	-10.9604
▁concert	-10.9607
▁Did	-10.9608
▁wedding	-10.9611
▁agents	-10.9611
▁advertising	-10.9612
英雄	-10.9613
*)	-10.9613
LOG	-10.9615
▁efficient	-10.9618
▁{	-10.9619
▁Test	-10.9622
las	-10.9624
很好的	-10.9626
▁Ku	-10.9626
▁demonstrate	-10.9627
访	-10.9628
public	-10.9631
超级	-10.9633
center	-10.9635
▁stood	-10.9638
])	-10.9639
▁grand	-10.9641
▁vital	-10.9643
请求	-10.9643
▁是的	-10.9646
巨	-10.9648
bone	-10.9649
▁roles	-10.9649
other	-10.9651
▁sustainable	-10.9651
▁increases	-10.9652
▁ongoing	-10.9652
▁younger	-10.9655
Command	-10.9658
▁Need	-10.9659
▁candidates	-10.9659
▁rain	-10.9659
▁automatically	-10.9663
==	-10.9664
宋	-10.9665
武汉	-10.9666
猪	-10.9666
▁drawing	-10.9669
去年	-10.967
蒙	-10.9672
的一个	-10.9673
Exception	-10.9673
版本	-10.9674
混合	-10.9674
▁Tra	-10.968
▁Which	-10.9682
)}	-10.9682
inter	-10.9683
double	-10.9683
月份	-10.9684
不满意	-10.9687
天猫	-10.9694
▁consistent	-10.9695
▁dealing	-10.9697
▁association	-10.9698
▁mix	-10.9699
▁Bas	-10.9701
禁	-10.9704
塑	-10.9704
hydr	-10.9705
几天	-10.9705
mode	-10.9709
有一个	-10.9709
]{	-10.9711
Var	-10.9714
▁widely	-10.9714
brief	-10.9714
造型	-10.9715
▁Space	-10.9715
铺	-10.9716
可以吗	-10.9717
穿着	-10.9719
ending	-10.972
▁Dar	-10.972
How	-10.9722
▁duty	-10.9722
oy	-10.9724
耳	-10.9725
▁predict	-10.9725
wheel	-10.9728
追求	-10.9731
master	-10.9731
aka	-10.9732
技巧	-10.9736
事业	-10.9743
grad	-10.9749
▁Za	-10.9751
郑	-10.9751
▁extern	-10.9752
rac	-10.9753
▁challenging	-10.9754
近期	-10.9755
▁好的亲	-10.9755
▁Tim	-10.9756
到底	-10.9756
sys	-10.9758
▁regions	-10.9764
从事	-10.9764
▁crash	-10.9764
▁Early	-10.9765
▁festival	-10.9766
SIZE	-10.9766
rec	-10.9766
▁Williams	-10.9767
▁trading	-10.977
引起	-10.9771
pal	-10.9772
ALL	-10.9772
▁sick	-10.9772
授权	-10.9772
▁Zealand	-10.9773
▁Spain	-10.9774
breaking	-10.9775
▁holiday	-10.9775
本实用新型	-10.9776
▁eating	-10.9776
▁houses	-10.9777
REG	-10.9778
default	-10.9779
xF	-10.978
▁Guide	-10.9787
▁situations	-10.9788
pose	-10.9788
о	-10.979
用的	-10.9791
浅	-10.9794
▁principal	-10.9799
机制	-10.98
几乎	-10.98
厅	-10.9801
▁reporting	-10.9805
鉴定	-10.9809
这款是	-10.9809
为准	-10.981
▁crucial	-10.9812
ches	-10.9813
配套	-10.9813
▁comparison	-10.9817
▁parameters	-10.9818
战斗	-10.9818
▁feelings	-10.9819
▁banks	-10.9821
屋	-10.9821
▁regard	-10.9821
▁fighting	-10.9823
▁snow	-10.9828
▁apartment	-10.9829
▁routine	-10.983
▁float	-10.983
▁confirmed	-10.983
人数	-10.9833
▁stars	-10.9834
▁owned	-10.9834
▁Ministry	-10.9842
osis	-10.9843
worker	-10.9843
▁fat	-10.9844
攻	-10.9846
▁Win	-10.9847
Ref	-10.9849
▁architecture	-10.9851
帮我	-10.9852
sy	-10.9853
▁arms	-10.9853
暴	-10.9855
体现	-10.9857
时刻	-10.9863
旺旺	-10.9865
▁FOR	-10.9866
都能	-10.9867
发送	-10.9869
byte	-10.987
警	-10.9871
足球	-10.9873
节目	-10.9874
固	-10.9874
Pro	-10.9875
▁proof	-10.9876
▁tasks	-10.9878
分为	-10.9879
▁Edward	-10.9882
如果你	-10.9882
▁Should	-10.9883
▁component	-10.9883
刑	-10.9884
▁minute	-10.9885
城区	-10.9886
▁vast	-10.9887
dra	-10.9887
▁Keep	-10.9888
unt	-10.9888
联系我	-10.9888
趋势	-10.9888
录	-10.9892
▁exists	-10.9895
嘴	-10.9897
互	-10.9898
▁obvious	-10.9898
ult	-10.9898
▁gene	-10.9899
rain	-10.9901
wan	-10.9904
ica	-10.9904
▁sizeof	-10.9905
根本	-10.9905
随机	-10.9905
解决方案	-10.9905
防护	-10.9906
充满	-10.9906
擦	-10.9907
tail	-10.9909
▁arts	-10.991
▁Having	-10.9911
uni	-10.9912
▁Wa	-10.9914
商标	-10.9917
▁coast	-10.9919
▁journal	-10.9923
Client	-10.9923
各个	-10.9925
▁namespace	-10.9927
▁inline	-10.9928
▁acts	-10.9931
泥	-10.9932
▁USB	-10.9933
▁filter	-10.9934
TP	-10.9936
▁Nov	-10.9936
system	-10.9938
触	-10.994
转载	-10.9941
现象	-10.9945
La	-10.9945
▁messages	-10.9945
Me	-10.9948
▁urban	-10.995
▁closer	-10.9952
bro	-10.9952
适用	-10.9953
告诉	-10.9954
▁drink	-10.9955
▁tri	-10.9956
干燥	-10.9958
wire	-10.9959
ora	-10.9963
stretch	-10.9964
▁Off	-10.9964
▁Far	-10.9964
itis	-10.9964
▁Ali	-10.9965
小主	-10.9965
▁+=	-10.9968
▁injuries	-10.997
▁Common	-10.9972
say	-10.9972
功率	-10.9974
▁sugar	-10.9976
▁fruit	-10.9977
▁facing	-10.9978
▁Control	-10.9979
▁mainly	-10.9981
的影响	-10.9981
▁trail	-10.9981
更好	-10.9982
frame	-10.9986
▁registration	-10.9988
▁Age	-10.9992
▁kinds	-10.9992
▁engaged	-10.9993
最低	-10.9996
对比	-11.0002
▁realized	-11.0003
▁anywhere	-11.0005
ically	-11.0008
mile	-11.0011
惊	-11.0012
最佳	-11.0012
▁Moreover	-11.0012
att	-11.0014
的新	-11.0014
store	-11.0014
Not	-11.0014
剪	-11.0015
▁Software	-11.0015
暗	-11.0016
coll	-11.0017
▁horse	-11.0017
▁expertise	-11.0019
next	-11.0019
▁§	-11.0019
ident	-11.0021
▁networks	-11.0021
▁transform	-11.0023
担心	-11.0023
Method	-11.0024
驾	-11.0027
▁incident	-11.0028
User	-11.0028
▁DNA	-11.0029
▁linked	-11.003
▁valid	-11.0033
下的	-11.0034
▁closely	-11.0042
▁prize	-11.0045
▁council	-11.0046
针	-11.0047
▁celebrate	-11.0048
▁flight	-11.005
岗位	-11.005
▁enforcement	-11.0052
艾	-11.0052
实验	-11.0054
XL	-11.0055
一位	-11.0055
观众	-11.0056
的需求	-11.0056
ö	-11.0058
▁grown	-11.0058
ó	-11.0059
Result	-11.0059
融合	-11.0061
▁drivers	-11.0061
的方法	-11.0063
▁achieved	-11.0064
吨	-11.0064
ators	-11.0066
▁necessarily	-11.0068
弹	-11.0068
mus	-11.0072
▁unknown	-11.0072
▁returns	-11.0074
▁Vol	-11.0075
▁Mountain	-11.0076
java	-11.0077
雄	-11.0081
bird	-11.0083
▁poly	-11.0083
has	-11.0085
▁Fe	-11.0085
Return	-11.0092
提供了	-11.0092
els	-11.0096
使用的	-11.0097
等待	-11.0098
▁Arch	-11.01
▁Min	-11.0101
xB	-11.0102
ison	-11.0107
▁dress	-11.0111
的事情	-11.0114
▁provisions	-11.0118
▁AI	-11.012
▁anxiety	-11.0123
▁drama	-11.0124
便宜	-11.0127
▁faster	-11.0128
▁apps	-11.0129
运费险	-11.0132
改革	-11.0132
hash	-11.0134
▁feed	-11.0135
上班	-11.0135
今	-11.0136
幅	-11.0136
浙江省	-11.014
ata	-11.0145
熟	-11.0145
▁depends	-11.0147
api	-11.0147
▁Watch	-11.0147
▁neither	-11.0149
date	-11.0149
GE	-11.015
▁suffer	-11.015
lands	-11.0151
▁miss	-11.0152
一套	-11.0152
阳光	-11.0153
监管	-11.0156
▁evil	-11.0158
▁implement	-11.0159
干净	-11.0162
▁semi	-11.0162
事情	-11.0164
名称	-11.0172
▁plate	-11.0173
▁Fair	-11.0174
依	-11.0176
怀	-11.0178
▁accurate	-11.0178
▁busy	-11.0181
▁Pen	-11.0184
▁broadcast	-11.0185
▁consequences	-11.0187
▁relief	-11.019
LI	-11.0191
溪	-11.0193
批	-11.0194
▁Sur	-11.0197
往往	-11.0198
略	-11.02
Mode	-11.02
▁forth	-11.0202
▁diseases	-11.0202
▁organized	-11.0203
当中	-11.0204
▁approval	-11.0204
▁entitled	-11.0205
arrow	-11.0206
锦	-11.0207
▁Night	-11.0209
tip	-11.0211
▁losing	-11.0213
cos	-11.0213
▁compensation	-11.0219
现金	-11.0221
虫	-11.0221
闭	-11.0222
▁Jersey	-11.0223
SL	-11.0223
邀请	-11.0224
Function	-11.0225
即使	-11.0226
▁aspect	-11.0226
▁tea	-11.023
。（	-11.0231
▁retirement	-11.0234
▁neuro	-11.0235
▁communicate	-11.0236
。/:	-11.0236
辉	-11.0236
▁increasingly	-11.0239
▁upper	-11.0239
(__	-11.024
▁enhance	-11.024
▁pull	-11.0241
成果	-11.0242
▁Latin	-11.0242
▁attitude	-11.0245
IR	-11.0246
签收	-11.0246
eff	-11.0248
▁era	-11.0251
WE	-11.0253
领先	-11.0253
▁谢谢	-11.0253
玩法	-11.0254
▁poll	-11.0255
可以在	-11.0257
▁dating	-11.026
teen	-11.0261
▁Click	-11.0261
Of	-11.0262
▁var	-11.0264
cas	-11.0264
▁Par	-11.027
subsection	-11.0272
▁contest	-11.0273
径	-11.0274
迎	-11.0274
酷	-11.0277
▁actor	-11.0277
▁choices	-11.0277
ulation	-11.0277
▁brief	-11.0278
▁yield	-11.0278
▁Still	-11.028
▁recognition	-11.028
种植	-11.0281
认	-11.0281
▁fail	-11.0282
▁decrease	-11.0282
Tr	-11.0287
▁assess	-11.0288
▁colour	-11.0296
▁Va	-11.0296
不再	-11.0297
餐饮	-11.0299
▁Northern	-11.0301
典	-11.0301
▁innovative	-11.0302
ox	-11.0302
▁remote	-11.0303
▁Among	-11.0304
System	-11.0305
▁findings	-11.0306
▁Comp	-11.031
▁mom	-11.0314
买的	-11.0317
▁Matt	-11.0317
挡	-11.032
动作	-11.0324
朗	-11.0326
▁Little	-11.0328
▁distributed	-11.0328
细节	-11.0328
▁victims	-11.0331
^{\	-11.0332
mem	-11.0333
很大	-11.0333
须	-11.0335
▁IS	-11.0336
右	-11.0338
▁shooting	-11.0339
Element	-11.034
改造	-11.034
onym	-11.0341
▁largely	-11.0343
劳	-11.0345
▁stores	-11.0347
▁thousand	-11.0347
▁Bob	-11.0347
▁contained	-11.035
▁iron	-11.0351
uri	-11.0352
主体	-11.0358
▁victory	-11.0358
▁awards	-11.036
poli	-11.0361
og	-11.0361
iness	-11.0362
▁zone	-11.0364
您看	-11.0365
确实	-11.0366
quot	-11.0367
宗	-11.0369
OC	-11.037
▁trend	-11.037
▁restaurant	-11.0372
graph	-11.0373
▁Mass	-11.0373
依照	-11.0374
▁behalf	-11.0378
主要是	-11.0379
都不	-11.038
ibility	-11.0383
▁commission	-11.0388
yo	-11.039
word	-11.0391
▁Comments	-11.0392
▁Je	-11.0393
true	-11.0397
▁facts	-11.0398
▁Step	-11.0398
▁adventure	-11.0398
中间	-11.0399
Address	-11.0399
▁meetings	-11.0399
imes	-11.04
来到	-11.0402
$\	-11.0403
否则	-11.0404
亲爱哒	-11.0404
▁sport	-11.0408
▁Tags	-11.0409
▁danger	-11.041
纤维	-11.0411
公园	-11.0412
high	-11.0413
sel	-11.0413
妈妈	-11.0414
▁theme	-11.0417
的生活	-11.0417
gn	-11.0418
sync	-11.0418
坏	-11.0418
▁adopted	-11.0419
人群	-11.0419
策略	-11.0419
▁millions	-11.042
▁constantly	-11.0421
岸	-11.0421
湾	-11.0422
邮费	-11.0422
工资	-11.0425
洁	-11.0427
▁specified	-11.0428
跌	-11.043
pers	-11.0431
幕	-11.0432
▁historic	-11.0433
▁figures	-11.0435
毕业	-11.0435
构成	-11.0438
娜	-11.0441
sis	-11.0442
▁Irish	-11.0443
▁capture	-11.0445
伤害	-11.0445
device	-11.0445
ula	-11.0448
来了	-11.0448
UL	-11.0448
摆	-11.045
font	-11.0453
▁dinner	-11.0454
汽	-11.0456
Application	-11.0456
后期	-11.0457
bytes	-11.046
▁west	-11.0461
示	-11.0464
▁generated	-11.0466
VE	-11.0466
哪些	-11.0468
BR	-11.0469
hor	-11.0472
▁User	-11.0472
▁terminal	-11.0476
▁expansion	-11.0478
▁suggests	-11.048
iff	-11.0484
================	-11.0485
SET	-11.0485
▁Member	-11.0486
就业	-11.0489
▁passing	-11.0493
NBA	-11.0494
▁Mal	-11.0499
一名	-11.05
ular	-11.0501
PER	-11.0503
UP	-11.0504
观察	-11.0506
▁outdoor	-11.0506
刮	-11.0508
▁capable	-11.0509
ERR	-11.0509
依然	-11.0511
ENT	-11.0513
▁copyright	-11.0514
away	-11.0516
中华人民共和国民事诉讼法	-11.0516
上线	-11.0519
▁Ken	-11.052
▁shut	-11.0521
▁Britain	-11.0522
psi	-11.0522
编辑	-11.0523
An	-11.0523
TER	-11.0525
戏	-11.0527
lines	-11.0527
指数	-11.0529
吸引	-11.0529
▁Non	-11.0529
就要	-11.0532
退换货	-11.0532
▁exact	-11.0537
omega	-11.0538
▁mono	-11.0539
▁winner	-11.054
lia	-11.0542
▁Democratic	-11.0543
Windows	-11.0547
Collection	-11.0548
校园	-11.0548
tick	-11.055
自行	-11.0551
▁genetic	-11.0551
▁这边	-11.0553
▁formation	-11.0554
高级	-11.0555
tter	-11.0555
▁efficiency	-11.056
宏	-11.0562
▁Trade	-11.0563
两种	-11.0565
▁mouth	-11.0567
▁peak	-11.0568
植	-11.0568
总结	-11.0571
循环	-11.0572
裂	-11.0572
▁assistant	-11.0573
▁请问	-11.0575
▁Steve	-11.0582
▁Video	-11.0583
▁operate	-11.0583
帝	-11.0583
故障	-11.0584
本次服务满意请记得五星好评哦	-11.0587
▁sides	-11.0587
AG	-11.0594
煤	-11.0597
▁submit	-11.0598
▁compliance	-11.0599
黄金	-11.06
ste	-11.0601
租赁	-11.0601
▁usual	-11.0601
PO	-11.0603
encode	-11.0604
▁involves	-11.0605
▁battery	-11.0606
®	-11.0608
给亲	-11.061
研	-11.061
bc	-11.0611
燕	-11.0611
输	-11.0611
适应	-11.0611
II	-11.0612
氧化	-11.0614
▁guidance	-11.0615
▁Auto	-11.0616
▁Cu	-11.0616
▁Attorney	-11.0616
show	-11.0618
特征	-11.0618
▁Furthermore	-11.0618
罐	-11.062
▁painting	-11.0621
证书	-11.0624
年轻	-11.0626
▁random	-11.0629
stitu	-11.063
▁engagement	-11.0632
探索	-11.0635
响	-11.0636
person	-11.0638
滤	-11.0639
Job	-11.0647
fr	-11.0649
▁reliable	-11.065
▁Main	-11.0651
din	-11.0651
▁permanent	-11.0651
▁regime	-11.0652
From	-11.0652
引导	-11.0652
▁accordance	-11.0654
▁worst	-11.0655
香港	-11.0655
枪	-11.0656
▁turns	-11.0656
▁appreciate	-11.0656
▁listening	-11.0659
理论	-11.0661
．	-11.0663
▁certificate	-11.0664
丰富的	-11.0665
鞋子	-11.0665
参数	-11.0666
Select	-11.0666
▁immediate	-11.067
▁shopping	-11.0671
监测	-11.0674
▁heaven	-11.0674
▁platforms	-11.068
落实	-11.0681
lay	-11.0685
▁basketball	-11.0687
dc	-11.0688
▁depression	-11.069
手术	-11.0691
▁Mad	-11.0692
▁Engineering	-11.0692
grav	-11.0692
期待您的光临	-11.0695
案件	-11.0696
元素	-11.0697
ather	-11.0698
▁glad	-11.07
我要	-11.07
搭	-11.0703
▁strange	-11.0704
▁moments	-11.0705
turn	-11.0705
▁rely	-11.0706
Standard	-11.0708
敏	-11.0711
邮	-11.0713
▁eligible	-11.0713
▁settlement	-11.0717
▁scientists	-11.0717
作出	-11.0717
HA	-11.072
vig	-11.0721
▁reaction	-11.0722
赶	-11.0722
▁Unfortunately	-11.0723
▁Senior	-11.0724
cin	-11.0727
▁improvement	-11.0729
GO	-11.0731
▁argue	-11.0732
以前	-11.0734
stat	-11.0734
腾	-11.0735
▁answers	-11.0736
均匀	-11.0738
▁replaced	-11.0738
▁informed	-11.0739
解释	-11.0739
▁Colorado	-11.0745
▁examine	-11.0747
氧	-11.0748
▁affordable	-11.0748
▁guitar	-11.0749
}{\	-11.075
▁warning	-11.075
▁Following	-11.0751
kar	-11.0753
领券	-11.0753
▁Bon	-11.0754
trans	-11.0754
粗	-11.0754
制定	-11.0755
当事人	-11.0755
▁Governor	-11.0757
勇	-11.0759
划	-11.0759
纪	-11.076
将会	-11.0767
▁purchased	-11.0767
榜	-11.0769
就可以了	-11.077
▁Championship	-11.0771
▁Four	-11.0772
▁monthly	-11.0772
三年	-11.0773
OL	-11.0774
土地	-11.0775
▁reputation	-11.0779
跨	-11.078
gal	-11.0782
每一个	-11.0785
保温	-11.0786
eries	-11.0786
nut	-11.0791
江苏省	-11.0791
经理	-11.0792
▁guest	-11.0793
▁rural	-11.0793
cus	-11.0795
▁storm	-11.0799
错误	-11.0802
刺	-11.0802
▁Grant	-11.0803
表达	-11.0805
hook	-11.0807
变得	-11.0808
▁Pacific	-11.0809
▁stands	-11.0809
Level	-11.081
能源	-11.0811
庭	-11.0811
each	-11.0812
ough	-11.0812
重大	-11.0813
ken	-11.0814
▁visiting	-11.0815
▁army	-11.0815
▁letters	-11.0816
质量问题	-11.0817
▁Oh	-11.082
PI	-11.0821
权利	-11.0823
context	-11.0823
西藏	-11.0824
▁bond	-11.0825
试试	-11.0826
BIT	-11.0828
▁claimed	-11.0829
型号	-11.083
When	-11.0833
不够	-11.0834
让我们	-11.0837
ied	-11.0838
的主要	-11.0839
url	-11.0842
顺丰	-11.0847
▁improving	-11.0848
评估	-11.085
所有的	-11.0851
▁YouTube	-11.0853
CB	-11.0854
host	-11.0855
OUT	-11.0858
▁mixed	-11.0859
Continu	-11.0859
指标	-11.086
物品	-11.086
乘	-11.0862
DP	-11.0862
退换	-11.0864
每年	-11.0866
inated	-11.0867
晨	-11.0868
很多人	-11.0869
▁equivalent	-11.0869
拒收	-11.087
xC	-11.087
▁turning	-11.0871
▁consists	-11.0874
▁smooth	-11.0876
滚	-11.0879
fc	-11.0879
▁trained	-11.088
ways	-11.088
ural	-11.088
▁Being	-11.0884
graphic	-11.0885
的原因	-11.0885
库存	-11.0887
▁understood	-11.0888
播	-11.0888
logical	-11.0892
青年	-11.0893
Read	-11.0894
曼	-11.0894
▁Vice	-11.0899
corn	-11.0902
识别	-11.0904
及其	-11.0905
▁Pennsylvania	-11.0908
▁institution	-11.0911
竹	-11.0912
input	-11.0915
cut	-11.0918
闻	-11.0918
绒	-11.0918
▁Santa	-11.0919
apping	-11.092
inc	-11.0921
cf	-11.0922
缓	-11.0926
海外	-11.0929
▁IT	-11.0931
▁convert	-11.0931
▁extreme	-11.0936
传播	-11.0939
时期	-11.0941
▁Chapter	-11.0942
Process	-11.0943
填	-11.0946
▁Ram	-11.0949
姆	-11.0949
▁bigger	-11.095
▁mountain	-11.0951
bool	-11.0952
▁Its	-11.0957
▁sad	-11.0958
rail	-11.0959
实时	-11.0959
▁Credit	-11.096
Track	-11.096
▁lifestyle	-11.0964
SW	-11.0965
▁Coast	-11.0965
▁Register	-11.0967
craft	-11.0967
igh	-11.0968
▁indicate	-11.097
▁chronic	-11.0971
▁qualified	-11.0975
NT	-11.0977
术	-11.0978
aving	-11.0978
人民法院	-11.098
▁compare	-11.0981
司	-11.0981
▁Os	-11.0983
▁infection	-11.0983
目的	-11.0983
▁boys	-11.0985
PORT	-11.0987
(*	-11.0989
催	-11.0991
▁evaluation	-11.0992
UC	-11.0992
季度	-11.0994
）；	-11.0995
Stream	-11.0996
后续	-11.0996
Ra	-11.0998
cra	-11.1001
Point	-11.1002
▁invest	-11.1002
▁formal	-11.1005
吹	-11.1006
Write	-11.1006
政策	-11.1008
first	-11.101
▁Week	-11.1011
▁Pla	-11.1011
ati	-11.1013
存储	-11.1014
事件	-11.102
不支持	-11.1021
USE	-11.1021
▁expectations	-11.1023
▁accessible	-11.1024
回来	-11.1025
ump	-11.1027
▁reserved	-11.1027
裁	-11.1028
芳	-11.1036
▁Parliament	-11.1036
也能	-11.1037
cell	-11.1037
how	-11.1038
puls	-11.1039
▁beach	-11.1039
▁enterprise	-11.104
本人	-11.104
▁intellectual	-11.104
▁Learn	-11.1041
▁reward	-11.1041
申	-11.1041
ü	-11.1044
offset	-11.1045
▁欢迎光临	-11.1045
即将	-11.1047
账户	-11.1047
红色	-11.1049
profit	-11.1052
cept	-11.1053
俗	-11.1055
▁Look	-11.1056
狗	-11.1057
elle	-11.1059
的要求	-11.106
oh	-11.1061
▁craft	-11.1064
▁Yu	-11.1067
Ptr	-11.107
());	-11.1071
▁accomplish	-11.1071
▁Jr	-11.1073
弄	-11.1073
token	-11.1074
RF	-11.1075
Print	-11.1075
▁ban	-11.1077
▁skill	-11.1078
EV	-11.1079
MIN	-11.1079
▁outcomes	-11.108
▁east	-11.1081
不一样	-11.1081
bot	-11.1083
做的	-11.1083
None	-11.1084
bound	-11.1085
审核	-11.1086
百度	-11.1087
▁depend	-11.1093
提供的	-11.1098
gle	-11.1098
construct	-11.1098
▁resistance	-11.1098
radi	-11.1099
▁outcome	-11.1099
浪	-11.1101
STR	-11.1102
Model	-11.1103
▁talked	-11.1104
ML	-11.1105
让我	-11.1105
▁Local	-11.1106
▁saved	-11.1106
通道	-11.1107
kernel	-11.1109
期限	-11.1109
▁humans	-11.1109
▁founder	-11.111
lift	-11.111
顾	-11.1112
rb	-11.1112
”“	-11.1113
很难	-11.1115
▁illness	-11.1116
霜	-11.1117
▁victim	-11.1119
视觉	-11.1121
now	-11.1124
▁apart	-11.1126
成分	-11.1126
▁Lau	-11.1128
▁Biden	-11.1129
刺激	-11.1129
赛季	-11.113
lap	-11.1131
LY	-11.1131
hin	-11.1134
▁soil	-11.1134
為	-11.1138
▁carefully	-11.1138
挑选	-11.1139
▁McC	-11.114
"/>	-11.114
旋转	-11.1141
残	-11.1142
corp	-11.1142
bd	-11.1142
▁Capital	-11.1143
php	-11.1143
▁Alex	-11.1145
tus	-11.1147
误	-11.1147
欧洲	-11.1149
а	-11.1149
接下来	-11.115
企业的	-11.1151
频	-11.1152
▁Columbia	-11.1153
收集	-11.1155
Run	-11.1157
▁Donald	-11.116
▁split	-11.1162
▁entertainment	-11.1164
vision	-11.1167
▁Rome	-11.1167
打印	-11.1167
volatile	-11.1168
手游	-11.1169
▁contributions	-11.1169
ifier	-11.117
▁elections	-11.1171
出口	-11.1172
生长	-11.1174
雨里	-11.1176
▁king	-11.1178
ction	-11.118
▁Travel	-11.1181
▁covers	-11.1182
多次	-11.1182
▁contemporary	-11.1183
▁Sign	-11.1187
的内容	-11.1189
▁subjects	-11.1191
track	-11.1193
fu	-11.1195
▁promise	-11.1196
chor	-11.1197
洲	-11.1197
▁recover	-11.1198
▁formula	-11.1198
▁Help	-11.12
二十	-11.1201
▁attract	-11.1201
▁suitable	-11.1203
▁concerning	-11.1204
▁Nu	-11.1205
▁employer	-11.1206
▁equity	-11.1208
良好	-11.1212
▁liability	-11.1213
▁totally	-11.1213
萨	-11.1213
ifndef	-11.1213
单号	-11.1214
健	-11.1215
▁Illinois	-11.1217
▁Rob	-11.1217
abs	-11.1218
typename	-11.1219
▁Key	-11.1221
▁Pakistan	-11.1223
ters	-11.1226
▁Access	-11.1228
TI	-11.1228
▁sought	-11.1234
给予	-11.1236
每一	-11.1236
▁preparation	-11.1237
▁performing	-11.1241
itz	-11.1241
接口	-11.1242
▁Hotel	-11.1243
焊接	-11.1244
▁diversity	-11.1246
考核	-11.1246
▁Hy	-11.1248
供应	-11.1248
▁Elizabeth	-11.1249
fs	-11.1249
▁divorce	-11.1252
寸	-11.1252
Cell	-11.1253
哦亲	-11.1253
避	-11.1254
▁ordered	-11.126
▁narrow	-11.1263
▁Ren	-11.1264
勒	-11.1264
周期	-11.1265
▁feedback	-11.1265
Ha	-11.1266
tric	-11.1266
会不会	-11.1267
▁crew	-11.1268
▁reader	-11.1271
并不是	-11.1274
背景	-11.1278
lash	-11.128
▁afternoon	-11.1287
▁noticed	-11.1287
在一起	-11.1288
Version	-11.1289
上涨	-11.1292
▁Place	-11.1292
made	-11.1293
IVE	-11.1293
fire	-11.1294
▁adapt	-11.1294
▁nations	-11.1298
=\	-11.1301
各项	-11.1302
成员	-11.1305
监	-11.1305
▁participation	-11.1309
habit	-11.131
礼品	-11.1311
▁spin	-11.1312
瓜	-11.1316
▁Case	-11.1317
google	-11.1319
最好的	-11.1321
预约	-11.1322
曾经	-11.1323
oid	-11.1324
▁marked	-11.1325
___	-11.1326
屏幕	-11.1327
archive	-11.1332
▁Contact	-11.1333
▁commonly	-11.1333
▁Yeah	-11.1336
▁possess	-11.1338
不然	-11.1338
▁limits	-11.1339
▁Kim	-11.1342
blo	-11.1343
钻	-11.1345
▁Oct	-11.1345
我们是	-11.1346
深度	-11.1347
遗	-11.1348
▁retain	-11.1349
▁Blog	-11.1349
判断	-11.135
利润	-11.135
logo	-11.1351
▁flag	-11.1351
至少	-11.1352
▁admit	-11.1352
述	-11.1354
队伍	-11.1355
▁Mid	-11.1355
▁Jackson	-11.1358
▁Perhaps	-11.1358
▁Gal	-11.136
ert	-11.1362
▁ANY	-11.1365
辅助	-11.1367
▁hyper	-11.1368
pdf	-11.1368
▁industries	-11.137
IE	-11.1372
rough	-11.1372
NN	-11.1372
▁involving	-11.1374
日出生	-11.1374
exc	-11.1374
leq	-11.1375
性价比	-11.1375
融资	-11.1375
Current	-11.1376
▁visited	-11.1376
FO	-11.1377
desktop	-11.1378
厚度	-11.1379
▁Nations	-11.1381
ique	-11.1381
▁potentially	-11.1381
这边给您	-11.1383
ther	-11.1387
如有	-11.1387
等级	-11.1389
并没有	-11.1391
理由	-11.1392
tel	-11.1393
内的	-11.1393
world	-11.1394
▁kid	-11.1395
▁Mel	-11.1396
人物	-11.1397
▁pray	-11.1398
炒	-11.14
▁rooms	-11.1403
天津	-11.1403
They	-11.1404
保暖	-11.1405
Response	-11.1407
Account	-11.1407
▁ret	-11.1407
▁weak	-11.141
专用	-11.1411
lapse	-11.1411
nn	-11.1412
▁experiment	-11.1412
ike	-11.1413
▁inform	-11.1418
菲	-11.1418
是一款	-11.1421
tie	-11.1421
仁	-11.1421
rus	-11.1422
cker	-11.1424
▁Manager	-11.1425
▁occurs	-11.1425
ilde	-11.1426
呈现	-11.1426
▁patterns	-11.1426
厨房	-11.1428
▁adopt	-11.1429
▁inspiration	-11.1434
final	-11.1435
▁empty	-11.1435
韩国	-11.1437
lung	-11.1438
▁objective	-11.1438
经历	-11.1438
▁Den	-11.1439
陪	-11.144
member	-11.1441
▁Sy	-11.1443
ene	-11.1444
▁Assembly	-11.1444
urge	-11.1447
▁afraid	-11.1447
小二	-11.1449
liver	-11.1449
▁worship	-11.1449
有限	-11.145
委员会	-11.1455
各位	-11.1455
▁quiet	-11.1456
env	-11.1457
年龄	-11.1459
▁ship	-11.146
还会	-11.146
▁sufficient	-11.1462
tation	-11.1464
alt	-11.1464
▁NO	-11.1465
▁jurisdiction	-11.1466
▁opposite	-11.147
▁defendant	-11.147
▁Area	-11.1471
▁transformation	-11.1471
True	-11.1471
▁belief	-11.1474
自我	-11.1477
监控	-11.1477
▁diabetes	-11.1479
▁sand	-11.1479
itude	-11.1482
▁alongside	-11.1483
▁plastic	-11.1483
face	-11.1484
vit	-11.1484
▁browser	-11.1485
▁grace	-11.1485
▁noise	-11.1487
出行	-11.1487
mel	-11.1488
▁typical	-11.1488
nce	-11.1488
sup	-11.1489
点亮	-11.149
府	-11.149
挑	-11.1491
指出	-11.1492
impl	-11.1493
▁Agency	-11.1493
take	-11.1494
▁dose	-11.1495
▁Radio	-11.1496
▁tested	-11.15
▁hall	-11.1503
的效果	-11.1503
亲们	-11.1504
婚	-11.1505
▁Rep	-11.1506
By	-11.1508
Cl	-11.151
标签	-11.151
？/:	-11.1511
ington	-11.1511
model	-11.1511
现实	-11.1518
▁Stephen	-11.1519
护理	-11.152
syn	-11.1523
▁Ban	-11.1524
思想	-11.1526
广场	-11.1527
上了	-11.1528
▁Organization	-11.1529
hl	-11.1529
▁|-	-11.1533
▁Garden	-11.1533
股份	-11.1533
呼	-11.1536
▁suffered	-11.1536
货物	-11.1536
▁Ham	-11.1538
合适的	-11.1539
▁containing	-11.154
重视	-11.154
犯	-11.1542
原料	-11.1542
▁apt	-11.1544
件宝贝	-11.1548
一定的	-11.155
▁exhibit	-11.155
tale	-11.1552
▁supports	-11.1556
▁scheduled	-11.1556
▁incredible	-11.156
▁transportation	-11.156
▁tub	-11.1562
▁Professional	-11.1563
vel	-11.1564
▁Story	-11.1564
cru	-11.1565
ites	-11.1565
▁publication	-11.1566
发动机	-11.1567
▁Arizona	-11.1569
中央	-11.1571
砖	-11.1572
本站	-11.1572
混凝土	-11.1573
▁Hong	-11.1573
▁Things	-11.1576
▁thread	-11.1576
赶紧	-11.1578
▁decline	-11.1581
goto	-11.1582
▁initially	-11.1584
建议您	-11.1585
▁escape	-11.1586
可以点击收藏下店铺或者喜欢的宝贝	-11.1586
唱	-11.1587
法院	-11.1589
带来的	-11.1591
▁investments	-11.1591
▁liquid	-11.1594
▁personally	-11.1596
相当	-11.1597
▁somewhat	-11.1598
贸易	-11.16
传感器	-11.16
fin	-11.1602
换货	-11.1603
>>	-11.1603
▁hire	-11.1604
老人	-11.1605
▁configuration	-11.1606
tte	-11.1606
▁regardless	-11.1608
vy	-11.1609
▁principle	-11.1611
▁小姐姐	-11.1611
展开	-11.1613
我在	-11.1615
▁causing	-11.1615
在这	-11.1616
▁jump	-11.1617
职工	-11.1617
weight	-11.1617
▁Sen	-11.1619
摇	-11.162
▁transaction	-11.1621
▁intention	-11.1623
▁exit	-11.1627
nel	-11.1629
始终	-11.163
yan	-11.1633
▁dogs	-11.1634
Param	-11.1635
鼓	-11.1635
了一	-11.1636
▁Fo	-11.1636
练	-11.1637
▁PC	-11.1637
订	-11.1637
▁depth	-11.1638
染	-11.1639
())	-11.1639
ato	-11.164
bits	-11.1642
bert	-11.1642
▁weapons	-11.1643
▁symbol	-11.1645
▁doctors	-11.1646
▁orders	-11.1647
▁managing	-11.1648
忘	-11.1649
xE	-11.165
▁amounts	-11.165
▁Kong	-11.1653
漫	-11.1654
▁tradition	-11.1657
▁disorder	-11.1658
▁小可爱	-11.166
rk	-11.166
江苏	-11.166
▁info	-11.1661
▁contribution	-11.1663
清晰	-11.1665
dio	-11.1667
Bo	-11.1667
电商	-11.1669
安排发货	-11.1669
萌	-11.1669
▁III	-11.167
FP	-11.167
▁breast	-11.1671
▁Rose	-11.1671
********=	-11.1673
共享	-11.1673
拍摄	-11.1673
nar	-11.1673
▁representative	-11.1673
機	-11.1673
▁Economic	-11.1675
▁Ag	-11.1678
成熟	-11.1682
▁Net	-11.1682
▁Heart	-11.1682
proof	-11.1683
foot	-11.1686
и	-11.1687
▁interact	-11.1688
pel	-11.1688
where	-11.1688
▁Major	-11.1688
害	-11.1691
▁layer	-11.1691
▁Career	-11.1692
mad	-11.1693
四川	-11.1693
pipe	-11.1693
随后	-11.1695
▁continuing	-11.1696
tap	-11.1697
桌	-11.1697
不喜欢	-11.1699
▁Adam	-11.1699
▁faced	-11.1702
山东省	-11.1703
weapp	-11.1703
▁Eastern	-11.1706
仍然	-11.1709
rest	-11.1709
我就	-11.1709
▁updates	-11.171
parse	-11.1711
▁papers	-11.1711
cover	-11.1712
危险	-11.1713
HI	-11.1715
hard	-11.1716
news	-11.1718
Fig	-11.1718
▁Full	-11.1721
▁approaches	-11.1721
▁Fort	-11.1722
艳	-11.1723
til	-11.1725
alter	-11.1727
范围内	-11.1727
▁walked	-11.1727
▁champion	-11.1729
▁airport	-11.1731
整理	-11.1732
▁Multi	-11.1733
bm	-11.1733
verb	-11.1735
Br	-11.1736
ime	-11.1737
买了	-11.1737
▁Ju	-11.174
杜	-11.1742
相互	-11.1742
imemoji	-11.1743
搜	-11.1743
FE	-11.1744
看着	-11.1746
▁walls	-11.175
市民	-11.1751
不错的	-11.1754
是因为	-11.1754
wards	-11.1756
▁Sciences	-11.1757
▁stable	-11.1757
或许	-11.1758
▁believes	-11.1759
华为	-11.176
什么时候	-11.1761
▁Foreign	-11.1764
晒	-11.1765
精准	-11.1768
▁volunteer	-11.177
fur	-11.1772
▁Prince	-11.1773
rey	-11.1773
Core	-11.1776
承诺	-11.1778
wait	-11.1778
grid	-11.1779
uch	-11.1779
▁rose	-11.1782
▁silver	-11.1783
在此	-11.1783
桶	-11.1784
▁differ	-11.1784
prom	-11.1785
行业的	-11.1787
▁producer	-11.1788
kh	-11.179
Tree	-11.1793
的哟	-11.1794
BY	-11.1795
▁invited	-11.1795
▁ends	-11.1798
▁chose	-11.1798
▁dropped	-11.1798
▁plane	-11.1798
ening	-11.1801
▁characteristics	-11.1802
container	-11.1802
模型	-11.1804
raising	-11.1804
▁destroy	-11.1804
家人	-11.1806
▁Football	-11.1806
parent	-11.1806
祝	-11.1806
无需	-11.1807
than	-11.1807
night	-11.1808
▁spaces	-11.1808
关键词	-11.1809
阻	-11.1812
bri	-11.1812
▁Jane	-11.1814
í	-11.1815
front	-11.1815
奶	-11.1817
▁portfolio	-11.1818
▁Taylor	-11.1819
▁Iraq	-11.1819
ifying	-11.182
▁Microsoft	-11.182
called	-11.1821
风机	-11.1822
DD	-11.1827
▁Insurance	-11.1831
▁Without	-11.1831
▁Bridge	-11.1835
▁dynamic	-11.1835
cla	-11.1837
aver	-11.1838
onic	-11.1838
败	-11.184
\"	-11.1841
手段	-11.1845
}(\	-11.1846
保养	-11.1846
▁introduce	-11.1847
她的	-11.1848
Oh	-11.1848
ira	-11.1849
▁tank	-11.185
▁smile	-11.185
离开	-11.1851
核实	-11.1852
旺	-11.1853
储	-11.1854
沃	-11.1856
损坏	-11.1857
逆	-11.1861
▁View	-11.1861
▁acquired	-11.1861
是我们	-11.1862
▁god	-11.1862
节能	-11.1863
Vector	-11.1864
▁Cap	-11.1866
新型	-11.1867
▁Wil	-11.1868
关闭	-11.1869
ential	-11.1869
知名	-11.187
▁laid	-11.1871
▁Bell	-11.1875
eqref	-11.1876
电器	-11.1876
收益	-11.1877
概念	-11.1877
roll	-11.1878
抵	-11.1879
另	-11.1881
meter	-11.1882
▁slowly	-11.1884
▁monitoring	-11.1885
重要的	-11.1885
▁narrative	-11.1886
▁joining	-11.1886
必要	-11.1886
患	-11.1887
DM	-11.1891
突出	-11.1891
选购	-11.1891
在于	-11.1892
▁Jews	-11.1892
inal	-11.1894
来的	-11.1896
框	-11.1897
心情	-11.1898
完整	-11.1899
怪	-11.1899
也很	-11.1899
▁childhood	-11.19
coin	-11.1902
场所	-11.1902
扎	-11.1902
nose	-11.1902
▁flash	-11.1902
会尽快	-11.1904
▁instructions	-11.1904
▁explains	-11.1905
用品	-11.1908
▁您的订单开始处理	-11.1909
▁chemical	-11.1911
▁Consider	-11.1913
弯	-11.1914
cen	-11.1916
▁roll	-11.1917
▁drawn	-11.1918
queue	-11.1918
▁Pass	-11.1919
▁communications	-11.192
▁Stock	-11.1922
教授	-11.1923
账	-11.1925
induced	-11.1927
dam	-11.1928
▁seconds	-11.1928
ello	-11.1929
喜欢的话	-11.193
▁streets	-11.1931
RN	-11.1931
态	-11.1932
吸收	-11.1932
▁passage	-11.1932
CN	-11.1932
饰	-11.1933
▁Books	-11.1934
过滤	-11.1936
pan	-11.1938
DATA	-11.1938
▁soldiers	-11.1939
ION	-11.1939
▁Jean	-11.194
检验	-11.1943
总部	-11.1943
发货的	-11.1951
▁priest	-11.1952
人类	-11.1953
▁prayer	-11.1955
秦	-11.1955
cia	-11.1956
一旦	-11.1958
▁max	-11.1959
▁stored	-11.1959
杭州	-11.196
Ho	-11.1961
雾	-11.1962
▁pursue	-11.1963
▁Retrieved	-11.1963
▁aircraft	-11.1965
▁disaster	-11.1965
专门	-11.197
▁row	-11.1971
▁classroom	-11.1972
una	-11.1972
▁consumption	-11.1975
大大	-11.1976
wide	-11.1978
admin	-11.1978
▁promotion	-11.1978
▁suddenly	-11.1979
cli	-11.198
▁submitted	-11.1983
▁priority	-11.1983
地点	-11.1983
▁Card	-11.1983
女性	-11.1985
杂	-11.1985
规	-11.1986
▁Terms	-11.1986
▁seriously	-11.1986
▁confirm	-11.1987
赠品	-11.1987
第一次	-11.1988
▁province	-11.1988
▁Wo	-11.1989
▁kick	-11.1989
▁pilot	-11.199
bell	-11.1992
gov	-11.1993
理想	-11.1993
适用于	-11.1995
tom	-11.1996
rem	-11.1998
唯一	-11.2002
▁interaction	-11.2003
强化	-11.2003
VR	-11.2004
dig	-11.2005
▁chat	-11.2007
▁missed	-11.2007
焊	-11.2008
复合	-11.2008
▁arrested	-11.2009
▁Pra	-11.201
present	-11.2013
人体	-11.2013
▁repeat	-11.2014
its	-11.2016
以免	-11.2019
▁technique	-11.2019
凤	-11.2021
▁Page	-11.2021
才是	-11.2022
▁Short	-11.2023
联盟	-11.2025
一体	-11.2026
颜色分类	-11.2026
要是	-11.2029
▁directory	-11.2031
好看	-11.2032
成交	-11.2033
most	-11.2035
SR	-11.2045
▁graduated	-11.2045
▁sharp	-11.2047
gt	-11.2047
熟悉	-11.205
▁cook	-11.205
祥	-11.205
wo	-11.205
▁associate	-11.2055
畅	-11.2055
grade	-11.2055
▁declared	-11.2056
▁suspect	-11.2056
▁fly	-11.2059
之中	-11.2062
sym	-11.2062
pack	-11.2063
▁van	-11.2064
lang	-11.2064
Channel	-11.2065
Private	-11.2065
好吗	-11.2067
▁pleasure	-11.2067
▁poverty	-11.2069
▁choosing	-11.2071
shadow	-11.2071
身材	-11.2071
有机	-11.2072
▁Sh	-11.2074
身上	-11.2075
蛋	-11.2075
大道	-11.2076
▁reducing	-11.2078
自主	-11.2078
filename	-11.208
PDF	-11.208
大众	-11.2081
相应的	-11.2082
到货	-11.2082
太多	-11.2083
▁Farm	-11.2083
发的	-11.2083
▁Happ	-11.2084
▁Para	-11.2085
hum	-11.2085
▁Camp	-11.2087
band	-11.2092
地面	-11.2093
第五	-11.2093
€	-11.2093
也在	-11.2093
▁errors	-11.2094
可靠	-11.2094
nov	-11.2094
▁Israeli	-11.2095
px	-11.2098
拟	-11.2098
▁Doctor	-11.2099
▁Ly	-11.21
fit	-11.2104
usr	-11.2105
▁guests	-11.2106
dle	-11.2106
▁restrictions	-11.2106
ester	-11.2107
到达	-11.2107
school	-11.2108
的好	-11.2108
的位置	-11.2112
SEO	-11.2113
▁Gri	-11.2114
mil	-11.2115
step	-11.2118
孩子的	-11.2118
给大家	-11.212
▁Small	-11.2123
宣布	-11.2124
Document	-11.2129
可以直接	-11.213
长度	-11.213
ifdef	-11.2131
▁outstanding	-11.2132
▁leg	-11.2133
▁Rev	-11.2135
Len	-11.2136
▁killing	-11.2137
ACT	-11.2141
von	-11.2143
makers	-11.2145
rh	-11.2146
码数	-11.2147
缝	-11.2149
worth	-11.2149
踏	-11.2152
动物	-11.2154
▁Sta	-11.2156
▁governments	-11.2158
▁surprised	-11.2158
反映	-11.2159
进步	-11.2165
▁buffer	-11.2165
▁patent	-11.2165
甘	-11.2165
▁Turkey	-11.2165
▁fairly	-11.2166
▁Nick	-11.2168
▁curve	-11.2169
▁$(	-11.2169
using	-11.217
累计	-11.217
碎	-11.2171
▁Kar	-11.2171
▁courts	-11.2172
周边	-11.2172
▁Learning	-11.2175
后期有活动会第一时间通知您	-11.2175
的一种	-11.2177
▁corresponding	-11.2178
发展的	-11.2178
▁Point	-11.2179
幼儿园	-11.2179
assert	-11.2179
digit	-11.218
dal	-11.2181
▁Olympics	-11.2183
繁	-11.2185
▁categories	-11.2185
扩大	-11.2186
尖	-11.2187
Manager	-11.2188
▁Olympic	-11.2189
▁Instagram	-11.2189
▁perfectly	-11.2192
▁privilege	-11.2193
计算机	-11.2195
vid	-11.2197
▁Singapore	-11.2197
零售	-11.2197
▁trends	-11.2199
▁acquisition	-11.2199
ense	-11.2201
▁membership	-11.2202
ij	-11.2204
是有	-11.2207
标志	-11.2208
▁gained	-11.2209
limit	-11.2209
学会	-11.2209
虚	-11.2209
▁}	-11.2209
▁arrive	-11.221
▁assigned	-11.221
▁Was	-11.2212
现货	-11.2213
善	-11.2214
▁Cat	-11.2214
td	-11.2216
力度	-11.2217
dan	-11.2217
kins	-11.2218
加速	-11.2219
OM	-11.222
Def	-11.2221
shore	-11.2223
二维码	-11.2223
▁Marketing	-11.2228
▁Season	-11.2228
mol	-11.2228
对象	-11.2232
候	-11.2232
▁Final	-11.2232
▁tumor	-11.2233
鹏	-11.2234
En	-11.2234
ä	-11.2235
▁steel	-11.2235
▁relate	-11.2236
screen	-11.2237
▁alive	-11.2237
▁defend	-11.2243
的订单	-11.2244
每日	-11.2246
的东西	-11.2247
正品	-11.2247
▁statistics	-11.2253
▁Tro	-11.2255
▁Hard	-11.2255
电力	-11.2255
负担	-11.2255
市场的	-11.2256
通信	-11.2256
▁hidden	-11.2257
终于	-11.2258
▁introduction	-11.2258
▁lie	-11.226
鼻	-11.2262
情绪	-11.2262
商务	-11.2264
▁explanation	-11.2264
aga	-11.2267
query	-11.2267
▁Beau	-11.2267
copy	-11.2271
治理	-11.2272
▁Study	-11.2272
总是	-11.2273
▁colors	-11.2275
色彩	-11.2277
clip	-11.228
▁remind	-11.2282
▁scope	-11.2283
ement	-11.2284
client	-11.2285
▁basically	-11.2285
ico	-11.2287
解答	-11.2287
▁relating	-11.2289
mic	-11.2289
浆	-11.229
▁proportion	-11.229
ame	-11.2294
URL	-11.2294
柔	-11.2295
▁strongly	-11.2297
▁vary	-11.2299
▁hero	-11.2302
sey	-11.2305
开心	-11.2306
Server	-11.2308
Title	-11.2309
▁喜欢就带我走吧	-11.2311
明星	-11.2314
▁Luc	-11.2314
面临	-11.2316
▁rising	-11.2316
rice	-11.2316
讯	-11.2319
河南	-11.2321
之外	-11.2321
大帅哥	-11.2323
party	-11.2324
成了	-11.2325
alloc	-11.2326
▁initiative	-11.2328
▁>>	-11.2329
突然	-11.2334
人士	-11.2335
应急	-11.2336
Input	-11.2336
▁arrest	-11.2336
希	-11.2337
膏	-11.2338
确认收货	-11.2338
▁Christians	-11.234
ded	-11.2343
Java	-11.2344
▁Hand	-11.2345
恶	-11.2345
EST	-11.2346
▁blind	-11.2347
▁shock	-11.2348
Man	-11.235
ines	-11.2351
▁universities	-11.2353
▁Mount	-11.2353
▁household	-11.2355
▁Child	-11.2357
景区	-11.2364
▁fantastic	-11.2364
气体	-11.2364
俊	-11.2365
▁composition	-11.2366
▁lessons	-11.2368
▁secondary	-11.2371
▁Future	-11.2371
▁lock	-11.2371
▁distinct	-11.2371
infty	-11.2372
search	-11.2373
ality	-11.2373
USB	-11.2376
▁constitute	-11.2376
▁profit	-11.2376
▁Carl	-11.2376
▁focuses	-11.238
▁Del	-11.238
专营店	-11.238
▁diagnosis	-11.2381
▁residential	-11.2381
滨	-11.2382
skip	-11.2383
▁cup	-11.2387
在吗	-11.2387
集成	-11.2391
▁pitch	-11.2391
取消	-11.2394
xb	-11.2395
publish	-11.2396
热情	-11.2397
搅拌	-11.2397
▁divided	-11.2399
▁paint	-11.24
▁Death	-11.2402
▁poet	-11.2405
分离	-11.2407
rig	-11.2412
▁Matthew	-11.2412
▁southern	-11.2421
▁exposed	-11.2421
draw	-11.2421
Str	-11.2422
加上	-11.2422
阳市	-11.2422
▁resulted	-11.2422
▁upgrade	-11.2424
转动	-11.2426
root	-11.2426
高温	-11.2427
▁newly	-11.2429
▁Disney	-11.2429
遇	-11.2432
▁versions	-11.2432
好消息	-11.2436
hop	-11.2437
▁opposition	-11.2438
加快	-11.2438
avi	-11.2438
首次	-11.244
▁implemented	-11.2442
▁personnel	-11.2443
▁Missouri	-11.2446
▁风里	-11.2446
告	-11.2447
▁hardware	-11.2447
▁deserve	-11.2451
rog	-11.2452
孩子们	-11.2452
▁NY	-11.2452
：**	-11.2453
设置有	-11.2453
▁cheap	-11.2454
▁Share	-11.2455
▁friendly	-11.2455
无论	-11.2457
休	-11.2458
▁employed	-11.246
hol	-11.2462
▁Tor	-11.2463
▁brands	-11.2464
河南省	-11.2465
電	-11.2465
sw	-11.2466
以为	-11.2466
诊	-11.2468
cmd	-11.247
▁matches	-11.2472
▁till	-11.2472
▁protest	-11.2473
套餐	-11.2475
▁branch	-11.2475
gent	-11.2476
▁podcast	-11.2476
▁meat	-11.2478
cri	-11.2479
腔	-11.2481
▁Form	-11.2484
▁newspaper	-11.2486
▁studying	-11.2486
▁deeply	-11.2487
▁somewhere	-11.2487
▁scored	-11.2487
净化	-11.2488
▁Arab	-11.2489
▁permit	-11.2489
▁obviously	-11.249
▁samples	-11.249
套装	-11.2491
etc	-11.2492
tis	-11.2494
学历	-11.2494
类似	-11.2497
霸	-11.25
▁(“	-11.25
股东	-11.2501
note	-11.2502
合格	-11.2507
▁tickets	-11.2508
BM	-11.2508
▁Toronto	-11.2509
▁guidelines	-11.2509
rian	-11.2514
▁vice	-11.2514
leg	-11.2515
▁Massachusetts	-11.2515
▁interior	-11.2515
▁Ste	-11.2517
分子	-11.2518
▁requirement	-11.2519
+\	-11.252
utter	-11.2523
寻	-11.2523
专属	-11.2524
$-	-11.2526
Lock	-11.2526
细胞	-11.2528
solution	-11.253
▁Davis	-11.2531
答	-11.2531
▁actors	-11.2532
ony	-11.2534
科研	-11.2534
▁forever	-11.2538
▁indicated	-11.2539
摩	-11.2541
特性	-11.2541
▁bike	-11.2544
▁Natural	-11.2544
bury	-11.2545
▁Ol	-11.2546
贡献	-11.2546
▁Theatre	-11.2547
▁offset	-11.2549
震	-11.255
通用	-11.2551
▁complicated	-11.2553
都要	-11.2554
预防	-11.2554
▁machines	-11.2557
医学	-11.2558
灭	-11.2559
uv	-11.256
桃	-11.256
身边	-11.2564
皇	-11.2565
aki	-11.2565
Pos	-11.2566
▁fault	-11.2568
AV	-11.2569
后来	-11.2573
就像	-11.2574
▁discount	-11.2577
灵活	-11.2579
▁functional	-11.258
wall	-11.2582
gro	-11.2582
▁proposal	-11.2583
▁venture	-11.2584
▁muscle	-11.2585
是可以	-11.2587
rai	-11.2587
▁Price	-11.2589
Resource	-11.2591
每次	-11.2592
▁nearby	-11.2592
▁喜欢就不要犹豫了	-11.2593
▁Number	-11.2593
女士	-11.2594
加大	-11.2595
继	-11.2595
▁tight	-11.2595
enum	-11.2596
▁Harry	-11.2596
看一下	-11.26
dem	-11.26
品种	-11.2602
PU	-11.2602
▁vector	-11.2603
▁gambling	-11.2603
冲击	-11.2605
激光	-11.2605
loss	-11.2606
鑫	-11.2607
Source	-11.2607
世纪	-11.2609
差异	-11.261
FILE	-11.2611
▁succeed	-11.2612
附近	-11.2613
注重	-11.2614
ida	-11.2614
▁concentration	-11.2615
▁strain	-11.2616
▁Affairs	-11.2617
将在	-11.2617
]);	-11.262
画面	-11.2622
欠	-11.2622
▁Epi	-11.2622
胖	-11.2625
顺序	-11.2625
bank	-11.2626
▁pump	-11.2626
▁injured	-11.2627
Pop	-11.2629
▁Soviet	-11.263
match	-11.2632
▁breath	-11.2634
▁electricity	-11.2635
疏	-11.2636
▁Spring	-11.2636
▁Las	-11.2636
▁prominent	-11.2636
One	-11.2637
▁criteria	-11.2639
更有	-11.264
rill	-11.2642
handle	-11.2648
▁atmosphere	-11.2648
颜	-11.2648
液压	-11.265
▁Further	-11.2654
▁fiction	-11.2655
倾	-11.2655
Arg	-11.2656
名单	-11.2657
▁Egypt	-11.2657
▁measured	-11.2658
ics	-11.2658
▁Boy	-11.2659
脉	-11.2659
日期	-11.266
reference	-11.2661
补充	-11.2662
▁ocean	-11.2663
▁combat	-11.2664
▁小仙女	-11.2664
▁controlled	-11.2667
MENT	-11.2668
▁scholarship	-11.267
▁variable	-11.267
▁bottle	-11.2671
▁Records	-11.2671
重量	-11.2672
办公室	-11.2673
Big	-11.2673
允许	-11.2674
т	-11.2674
▁highlight	-11.2676
▁ownership	-11.2677
▁Eric	-11.2677
▁Protection	-11.2678
▁entity	-11.2679
nor	-11.268
▁frequency	-11.2681
也要	-11.2682
觉	-11.2683
仅限	-11.2683
英国	-11.2683
▁Privacy	-11.2686
Host	-11.2686
原来	-11.2687
▁lake	-11.2688
Download	-11.2689
LC	-11.269
▁instruction	-11.269
电压	-11.2695
专利	-11.2695
▁listing	-11.2698
逐	-11.2699
rv	-11.2702
等方面	-11.2702
being	-11.2705
▁Brazil	-11.2708
▁replacement	-11.2709
组件	-11.2709
留下	-11.271
Bit	-11.271
^\	-11.2716
化工	-11.2719
▁lunch	-11.2719
拍下哦	-11.2721
模拟	-11.2723
创意	-11.2724
伯	-11.2724
▁integrated	-11.2726
▁programming	-11.2727
寄回	-11.273
▁有什么问题都可以联系我呢	-11.2731
完美	-11.2732
second	-11.2732
▁shouldn	-11.2735
lp	-11.2735
▁dad	-11.2738
▁laptop	-11.2741
较大	-11.2743
的规定	-11.2745
区别	-11.2746
匹配	-11.2748
▁prime	-11.2752
硅	-11.2753
ched	-11.2754
▁regulatory	-11.2755
▁offices	-11.2756
ended	-11.2757
分布	-11.2757
秘	-11.2758
Task	-11.2758
▁burden	-11.2759
劲	-11.276
▁icon	-11.2761
▁Visit	-11.2761
▁witness	-11.2762
补偿	-11.2763
▁Start	-11.2767
epi	-11.2769
duct	-11.2769
串	-11.277
VM	-11.2773
fusion	-11.2774
gs	-11.2774
▁universe	-11.2774
名字	-11.2775
令人	-11.2776
▁Er	-11.2777
先进	-11.2777
电路	-11.2778
▁Try	-11.2779
▁Tagged	-11.278
上升	-11.278
创建	-11.2781
▁firms	-11.2781
▁$$	-11.2781
watch	-11.2783
▁reverse	-11.2783
ars	-11.2783
复杂	-11.2784
arc	-11.2786
FR	-11.2788
号楼	-11.279
lets	-11.279
现有	-11.279
▁lottery	-11.2793
Ex	-11.2794
▁backup	-11.2794
▁Again	-11.2795
▁residence	-11.2797
▁powers	-11.2798
psych	-11.2798
收费	-11.2798
▁recommendations	-11.28
犯罪	-11.2803
▁Clark	-11.2804
壳	-11.2804
拔	-11.2804
▁Ann	-11.2807
Cloud	-11.2807
DEF	-11.2808
操	-11.2808
原价	-11.2808
▁attached	-11.2808
▁Py	-11.2809
大多数	-11.281
edu	-11.2813
平安	-11.2813
▁absence	-11.2814
▁*/	-11.2814
handler	-11.2815
pointer	-11.2815
▁Staff	-11.2816
pop	-11.2817
▁LLC	-11.2817
积分	-11.2819
▁seasons	-11.282
▁Scotland	-11.2822
game	-11.2823
ao	-11.2824
oe	-11.2828
▁Korean	-11.2828
At	-11.2829
您如果对我们	-11.2831
▁graph	-11.2832
▁temporary	-11.2832
发行	-11.2835
壮	-11.2835
▁Constitution	-11.2841
▁slot	-11.2844
▁regulation	-11.2844
回家	-11.2844
聊	-11.2844
▁Student	-11.2848
▁facilitate	-11.285
▁bomb	-11.285
上下	-11.2851
无论是	-11.2851
课堂	-11.2852
▁Stone	-11.2852
CK	-11.2854
oli	-11.2854
▁substantial	-11.2855
▁Cur	-11.2859
乔	-11.286
难以	-11.2863
身份	-11.2863
睡	-11.2865
▁administrative	-11.2866
实用	-11.2867
market	-11.2867
▁(*	-11.2868
寻找	-11.2869
服装	-11.2869
ital	-11.287
racing	-11.2872
▁connections	-11.2874
▁doors	-11.2874
也没有	-11.2875
▁chart	-11.2875
▁Down	-11.2878
▁exceed	-11.2879
Config	-11.288
带动	-11.2881
▁carrying	-11.2883
▁Lady	-11.2885
Android	-11.2886
eur	-11.2886
▁Leave	-11.2887
▁possession	-11.2887
发货哦	-11.2889
fix	-11.289
▁rapidly	-11.2891
▁Country	-11.2891
▁recall	-11.2892
感染	-11.2894
▁Sky	-11.2895
jud	-11.2897
VIP	-11.2898
biz	-11.2898
df	-11.29
cum	-11.29
线路	-11.2903
高考	-11.2904
▁birthday	-11.2904
▁encounter	-11.2905
▁restaurants	-11.2905
症状	-11.2906
AY	-11.2906
▁Brian	-11.2909
山区	-11.2909
BI	-11.2911
who	-11.2911
蒸	-11.2912
bas	-11.2912
▁impressive	-11.2914
▁Customer	-11.2914
我们这边	-11.2916
server	-11.2916
收到了	-11.2916
的感觉	-11.2917
常规	-11.2917
▁responses	-11.2919
▁copies	-11.292
ional	-11.292
▁describes	-11.2921
▁acknowledge	-11.2922
高的	-11.2922
ject	-11.2922
lev	-11.2924
多少钱	-11.2926
hour	-11.2926
美食	-11.2926
▁picked	-11.2927
相同	-11.2929
FM	-11.2929
▁wearing	-11.2929
connect	-11.293
习	-11.2931
，《	-11.2931
▁Prior	-11.2932
▁您一共订购了	-11.2933
▁philosophy	-11.2933
肩	-11.2933
▁languages	-11.2934
▁module	-11.2934
▁talks	-11.2936
▁pan	-11.2942
扫描	-11.2944
Cam	-11.2946
辣	-11.2946
▁Line	-11.295
GR	-11.2952
▁Figure	-11.2953
▁sessions	-11.2954
inch	-11.2957
透明	-11.2957
HO	-11.2959
▁Cla	-11.296
枝	-11.296
明细如下	-11.2961
▁folks	-11.2963
▁DC	-11.2964
bon	-11.2965
▁evaluate	-11.2965
▁flowers	-11.2966
▁Philadelphia	-11.2967
▁usage	-11.2967
债务	-11.2968
篮	-11.2969
Spec	-11.2969
水泥	-11.2971
平衡	-11.2971
焦	-11.2971
▁Judge	-11.2974
▁Sound	-11.2974
修复	-11.2975
此时	-11.2976
锐	-11.2976
思维	-11.2977
污	-11.2979
SF	-11.298
yes	-11.2981
ific	-11.2983
▁premium	-11.2985
lea	-11.2986
SN	-11.2986
▁asset	-11.2986
感到	-11.2987
ark	-11.2988
Qu	-11.2988
▁Ty	-11.2988
角度	-11.2989
▁我一直都在的呢	-11.299
aunt	-11.299
元优惠券	-11.2991
ees	-11.2992
▁assault	-11.2993
▁Kan	-11.2994
what	-11.2995
缩	-11.2995
itu	-11.2996
▁Modern	-11.2997
ered	-11.2998
▁Feb	-11.2998
▁behaviour	-11.2999
SB	-11.2999
▁pure	-11.3001
欢	-11.3003
ility	-11.3003
▁Estate	-11.3004
▁Ltd	-11.3006
察	-11.3009
burg	-11.301
posed	-11.3011
▁keyboard	-11.3011
简介	-11.3012
仪器	-11.3013
▁answered	-11.3015
▁exam	-11.3015
回答	-11.3015
Mod	-11.3016
制品	-11.3018
德国	-11.3019
grass	-11.3021
南京	-11.3022
specific	-11.3024
▁Action	-11.3024
▁interpretation	-11.3025
sil	-11.3026
Linux	-11.3027
长时间	-11.3027
▁normally	-11.3029
赚	-11.3029
▁Hollywood	-11.303
dollar	-11.303
▁Cro	-11.3032
▁cable	-11.3033
▁cutting	-11.3035
▁Tur	-11.3036
至今	-11.3037
met	-11.3038
下单哦	-11.3038
▁Third	-11.3039
您的订单	-11.304
▁delete	-11.3042
坡	-11.3042
消毒	-11.3043
燃	-11.3045
讨论	-11.3046
对手	-11.3048
药物	-11.3051
▁transactions	-11.3052
ender	-11.3053
wn	-11.3053
▁vaccine	-11.3055
"><	-11.3055
同学们	-11.3056
▁insight	-11.3056
醒	-11.3056
扫	-11.3056
无线	-11.3057
Op	-11.3058
stroke	-11.3058
just	-11.3058
***	-11.3061
▁centers	-11.3063
Location	-11.3063
▁examination	-11.3064
ked	-11.3064
定期	-11.3065
游客	-11.3068
简单的	-11.3069
funded	-11.307
icon	-11.3071
▁Minnesota	-11.3072
▁arise	-11.3073
▁retired	-11.3074
辛	-11.3077
▁losses	-11.3079
▁northern	-11.308
学员	-11.3081
yy	-11.3086
▁stations	-11.3088
CPU	-11.3088
很快	-11.3091
▁salt	-11.3091
▁Wild	-11.3093
hon	-11.3095
▁merely	-11.3097
的技术	-11.3097
▁Daily	-11.3098
GM	-11.3099
mission	-11.3099
错了	-11.31
▁upcoming	-11.3102
▁Ze	-11.3103
发什么快递	-11.3104
▁sending	-11.3105
逃	-11.3108
▁supplies	-11.311
方面的	-11.3111
▁Wilson	-11.3111
umble	-11.3114
▁representing	-11.3115
▁recipient	-11.3116
She	-11.3117
芯片	-11.312
eat	-11.3121
是由	-11.3122
▁tele	-11.3122
curr	-11.3124
出的	-11.3126
伴	-11.3126
工作的	-11.3126
物料	-11.3126
wh	-11.3127
▁clinic	-11.3128
起到	-11.3129
版权	-11.3129
▁watched	-11.3134
续	-11.3134
▁mechanism	-11.3135
拿到	-11.3136
乙	-11.3137
▁abortion	-11.3139
valid	-11.3142
▁Ye	-11.3142
▁($	-11.3143
▁cleaning	-11.3144
▁anyway	-11.3146
▁bread	-11.3147
Record	-11.3148
▁react	-11.315
观看	-11.3152
▁fifth	-11.3154
▁organic	-11.3155
底部	-11.3156
抢购	-11.3156
▁evolution	-11.3157
熊	-11.3157
会计	-11.3158
高校	-11.3158
▁colleagues	-11.316
▁rapid	-11.316
▁Yo	-11.3162
▁solo	-11.3162
▁channels	-11.3164
利益	-11.3165
▁Fox	-11.3166
旗	-11.3168
系统的	-11.3168
mid	-11.3168
为大家	-11.3169
的高	-11.317
iously	-11.3171
Add	-11.3172
▁pace	-11.3173
▁confident	-11.3174
ami	-11.3174
hn	-11.3176
▁parking	-11.318
UINT	-11.3181
原创	-11.3184
带着	-11.3184
>(	-11.3185
rip	-11.3186
注明	-11.3187
此前	-11.3188
▁Finance	-11.3188
后面	-11.3192
▁Bro	-11.3192
癫痫	-11.3193
format	-11.3194
uke	-11.3195
▁Islamic	-11.3195
物理	-11.3196
TD	-11.3197
售后服务	-11.3199
始	-11.3199
DF	-11.3199
sqrt	-11.3201
Style	-11.3202
▁celebration	-11.3202
妆	-11.3204
发表	-11.3204
▁employ	-11.3205
▁everybody	-11.3207
▁teeth	-11.3208
▁emotions	-11.3208
▁accused	-11.3209
▁deals	-11.3211
撞	-11.3212
shirt	-11.3212
▁Islam	-11.3213
LD	-11.3216
▁foods	-11.3217
used	-11.3217
旅	-11.3217
▁greatly	-11.3218
加湿器	-11.322
于是	-11.3221
适当	-11.3221
flow	-11.3221
▁rental	-11.3222
Com	-11.3223
flower	-11.323
love	-11.3231
小型	-11.3232
eva	-11.3234
乌	-11.3235
ivity	-11.3238
似乎	-11.3239
▁albums	-11.3239
caption	-11.324
▁Associate	-11.3242
▁dreams	-11.3243
展现	-11.3244
eon	-11.3246
出来的	-11.3247
assign	-11.3247
▁Ever	-11.3249
▁personality	-11.3249
实在	-11.325
los	-11.3251
房子	-11.3255
监督	-11.3255
▁aims	-11.3256
holder	-11.3258
▁encouraged	-11.3259
较多	-11.3259
install	-11.326
机的	-11.3261
性和	-11.3262
猛	-11.3263
意味着	-11.3264
mir	-11.3264
▁demonstrated	-11.3264
▁Mag	-11.3265
慢慢	-11.3265
GS	-11.3267
航空	-11.3267
▁Navy	-11.3271
web	-11.3273
▁Training	-11.3274
亩	-11.3274
小米	-11.3276
Row	-11.328
欣	-11.3282
ACE	-11.3282
小妹	-11.3283
▁tall	-11.3289
▁magic	-11.329
悦	-11.3292
▁dear	-11.3293
TM	-11.3294
告知	-11.3294
▁Date	-11.3294
促销	-11.3295
不在	-11.3298
gon	-11.3298
▁careful	-11.33
rry	-11.33
▁subsequent	-11.3301
旗下	-11.3305
电缆	-11.3307
所在	-11.3309
▁binding	-11.3311
高压	-11.3312
mul	-11.3313
▁strengthen	-11.3314
清理	-11.3315
kes	-11.3316
▁Stra	-11.3317
▁Based	-11.3318
▁Members	-11.3319
社交	-11.332
暂	-11.3321
寿	-11.3324
▁ticket	-11.3326
召开	-11.3328
plain	-11.3332
iya	-11.3332
wrap	-11.3334
▁emissions	-11.3334
柳	-11.3335
Out	-11.3336
盆	-11.3339
烤	-11.3339
▁Cast	-11.3341
限时	-11.3342
month	-11.3342
含量	-11.3344
▁enemy	-11.3344
authentic	-11.3346
选用	-11.3347
worthy	-11.3347
TIME	-11.3349
是指	-11.3351
conscious	-11.3351
▁感谢您的咨询	-11.3351
▁closing	-11.3352
▁returning	-11.3352
▁memories	-11.3354
bow	-11.3355
▁investing	-11.3359
拍的	-11.336
▁survive	-11.336
▁drinking	-11.3361
▁universal	-11.3362
▁estimate	-11.3362
助力	-11.3363
ution	-11.3363
▁theater	-11.3363
GET	-11.3364
旋	-11.3365
▁Jordan	-11.3365
▁paragraph	-11.3366
有效的	-11.3367
▁Culture	-11.3368
删除	-11.3371
plan	-11.3371
敬	-11.3373
▁entering	-11.3373
▁defeat	-11.3373
▁covering	-11.3374
GP	-11.3375
▁creates	-11.3376
担保	-11.3377
och	-11.3377
Bar	-11.3377
polar	-11.3377
fall	-11.3379
OD	-11.3379
▁lawsuit	-11.3379
▁phrase	-11.3381
下单后	-11.3383
▁Muslim	-11.3385
auto	-11.3385
▁Legal	-11.3385
▁Francis	-11.3386
zing	-11.3387
($	-11.3387
▁sensitive	-11.3387
|\	-11.3388
涉	-11.3388
author	-11.339
render	-11.3391
▁cooperation	-11.3393
尝试	-11.3394
▁Prize	-11.3395
近年来	-11.3396
▁Ve	-11.3396
资质	-11.3397
能量	-11.3397
▁Six	-11.3398
主任	-11.3398
下方	-11.34
▁shell	-11.3401
cata	-11.3402
▁Simon	-11.3402
End	-11.3403
▁driven	-11.3403
资本	-11.3403
circ	-11.3404
▁Golden	-11.3405
▁whenever	-11.3406
▁abroad	-11.3406
公众号	-11.3406
▁extend	-11.3407
件减	-11.3409
▁proven	-11.3409
CG	-11.3414
priv	-11.3415
Well	-11.3415
回到	-11.3415
食物	-11.3419
▁investigate	-11.342
的企业	-11.3421
▁Due	-11.3422
quad	-11.3423
隔离	-11.3423
的信息	-11.3424
科技有限公司	-11.3425
栏	-11.3427
▁calm	-11.3427
▁convenient	-11.3427
pocket	-11.3428
attribute	-11.3429
▁在的亲	-11.3429
多年	-11.3429
原则	-11.3429
▁yards	-11.3431
▁Published	-11.3432
nan	-11.3432
凝	-11.3433
▁Ryan	-11.3433
Frame	-11.3434
对此	-11.3435
▁arguments	-11.3436
▁Des	-11.3436
终端	-11.3438
NV	-11.3438
mond	-11.3439
Up	-11.344
北京市	-11.344
▁counsel	-11.344
cream	-11.3441
破损	-11.3441
同时也	-11.3442
number	-11.3446
早上	-11.345
gree	-11.3451
貌	-11.3451
二次	-11.3452
▁producing	-11.3453
▁genre	-11.3454
▁Bush	-11.3455
▁licensed	-11.3455
▁crack	-11.3458
异常	-11.3459
一个人	-11.3461
十五	-11.3461
▁disability	-11.3463
ras	-11.3465
统	-11.3465
▁mentor	-11.3465
wr	-11.3465
▁Jon	-11.3467
▁Bor	-11.3467
▁Ger	-11.3469
▁Ky	-11.3469
输送	-11.3469
放弃	-11.3469
▁substance	-11.347
微博	-11.3471
exist	-11.3472
▁pointed	-11.3474
上海市	-11.3474
▁actress	-11.3477
的就是	-11.3479
懂	-11.3479
▁anymore	-11.348
▁陛下	-11.3483
剩	-11.3484
vm	-11.3485
玲	-11.3485
塘	-11.3486
▁Model	-11.3488
含有	-11.3488
MR	-11.3488
▁Angel	-11.349
蒂	-11.3493
搞	-11.3494
ving	-11.3495
thetic	-11.3496
forum	-11.3497
攻击	-11.35
▁literally	-11.35
▁visible	-11.35
两人	-11.3502
业主	-11.3503
▁opposed	-11.3503
trap	-11.3503
Omega	-11.3505
●	-11.3507
▁Sarah	-11.3508
不太	-11.3508
眉	-11.351
▁aside	-11.351
累	-11.3511
dump	-11.3513
ridge	-11.3514
▁wake	-11.3515
停止	-11.3515
spoken	-11.3517
▁yesterday	-11.352
lude	-11.3523
▁whereas	-11.3524
layout	-11.3526
live	-11.3527
maker	-11.3528
一步	-11.3528
inner	-11.3529
大会	-11.3532
▁applies	-11.3532
疫情防控	-11.3533
自动化	-11.3534
姜	-11.3534
attr	-11.3534
俱乐部	-11.3535
ila	-11.3535
贷	-11.3537
equ	-11.3538
创作	-11.3538
多多	-11.3538
▁requested	-11.3544
▁attempts	-11.3545
四个	-11.3546
lov	-11.3547
tty	-11.3548
▁Investment	-11.3548
aught	-11.355
lect	-11.3552
▁Kevin	-11.3552
蓝色	-11.3552
js	-11.3553
▁loop	-11.3556
allocate	-11.3562
kan	-11.3562
Language	-11.3563
中学	-11.3563
▁pup	-11.3564
▁admitted	-11.3564
抱	-11.3564
Go	-11.3565
mot	-11.3566
▁fabric	-11.3567
▁Dun	-11.3569
▁grave	-11.357
▁stages	-11.357
atur	-11.357
▁Jeff	-11.3571
漂亮	-11.3571
▁consult	-11.3572
▁Mat	-11.3572
▁combine	-11.3573
force	-11.3574
▁employers	-11.3575
▁healing	-11.3576
堆	-11.3577
▁savings	-11.3578
metric	-11.3578
▁guilty	-11.3579
▁reaching	-11.3579
的使用	-11.358
一系列	-11.358
氛围	-11.3581
▁maintained	-11.3582
改进	-11.3585
▁Store	-11.3585
下哦	-11.3588
quest	-11.359
妙	-11.3591
▁dates	-11.3594
▁addressed	-11.3594
竞	-11.3595
ago	-11.3595
地图	-11.3596
▁permitted	-11.3596
▁matrix	-11.3596
_***********	-11.3598
▁managers	-11.3601
ISO	-11.3602
▁Hope	-11.3602
cycl	-11.3603
▁Defense	-11.3603
 	-11.3604
▁governor	-11.3605
▁designs	-11.3609
快来点这里	-11.361
兽	-11.361
▁ensuring	-11.361
正是	-11.3611
多大	-11.3611
ei	-11.3612
iro	-11.3612
▁everyday	-11.3613
 	-11.3615
是非常	-11.3615
rous	-11.3615
▁maintaining	-11.3616
▁Fla	-11.3616
ori	-11.3619
疑	-11.3623
本科	-11.3623
▁adequate	-11.3625
▁Ven	-11.3626
呢亲	-11.3627
iti	-11.3628
姓名	-11.3628
忠	-11.3629
edge	-11.3629
▁equip	-11.3629
chol	-11.3631
衣衣	-11.3632
▁temple	-11.3632
▁unusual	-11.3634
▁absolute	-11.3634
▁duties	-11.3634
Single	-11.3635
▁proved	-11.3635
▁troops	-11.3638
▁>=	-11.3638
▁workplace	-11.3639
Format	-11.3641
Volume	-11.3643
肤色	-11.3643
▁clothes	-11.3644
的商品	-11.3646
bur	-11.3647
▁giant	-11.3647
那边	-11.3648
▁Ray	-11.3648
▁flood	-11.3649
▁stronger	-11.3649
hen	-11.365
▁featuring	-11.3651
▁Fall	-11.3653
陶	-11.3653
GC	-11.3654
▁refers	-11.3654
▁focusing	-11.3654
CODE	-11.3654
市场上	-11.3654
小说	-11.3655
请问有什么可以帮您的呢	-11.3656
▁Cancer	-11.3659
设备的	-11.366
Equal	-11.3661
tool	-11.3661
申请执行人	-11.3663
化的	-11.3665
鸟	-11.3665
GT	-11.3668
▁overcome	-11.3669
logic	-11.367
看起来	-11.367
change	-11.3672
新增	-11.3672
曹	-11.3672
▁ease	-11.3675
▁cookies	-11.3675
aba	-11.3676
LT	-11.3676
▁championship	-11.3677
UT	-11.3678
宾	-11.3678
bull	-11.368
▁territory	-11.368
▁Plus	-11.3681
▁tracks	-11.3686
▁apparently	-11.3686
报价	-11.3688
▁comedy	-11.3688
▁在的呢	-11.3689
mont	-11.3691
惊喜	-11.3695
▁Remember	-11.3698
HC	-11.3698
▁稍等	-11.3699
优惠卷	-11.37
▁involve	-11.3701
▁accounting	-11.3701
wear	-11.3702
幻	-11.3704
敌	-11.3705
▁Kansas	-11.3706
▁Jay	-11.3709
TT	-11.3712
佛	-11.3714
▁Later	-11.3716
vic	-11.3718
▁directors	-11.3718
ock	-11.3719
昨天	-11.372
▁drag	-11.3721
▁hosted	-11.3721
▁Come	-11.3723
▁exclusive	-11.3724
▁milk	-11.3725
▁derived	-11.3727
aya	-11.3728
招生	-11.3728
▁blame	-11.3731
phan	-11.3733
▁medal	-11.3733
▁keeps	-11.3733
dot	-11.3734
Yes	-11.3737
sect	-11.3741
▁detect	-11.3742
ops	-11.3744
▁hopes	-11.3745
▁falling	-11.3745
论文	-11.3746
▁pleased	-11.3747
医药	-11.3748
▁Mother	-11.3749
GPIO	-11.375
▁Tan	-11.375
dim	-11.3754
较为	-11.3756
fac	-11.3757
▁amendment	-11.3759
打包	-11.376
▁concrete	-11.376
收获	-11.3762
season	-11.3762
plugin	-11.3762
％	-11.3763
▁stuck	-11.3763
公斤	-11.3766
▁calendar	-11.3766
AND	-11.3766
▁ending	-11.3768
▁survival	-11.3769
只需	-11.377
其特征在于	-11.377
那里	-11.3771
toxic	-11.3774
▁capabilities	-11.3774
XX	-11.3775
▁completion	-11.3775
dl	-11.3775
debug	-11.378
▁conservative	-11.378
▁consultation	-11.378
▁writes	-11.378
▁treatments	-11.378
太阳	-11.3782
Term	-11.3783
骗	-11.3784
▁contributed	-11.3786
▁breach	-11.3787
RAM	-11.3789
(),	-11.3789
除外	-11.3789
▁destroyed	-11.3792
不一样的	-11.3792
▁Empire	-11.3795
Car	-11.3797
▁desired	-11.3797
▁damages	-11.3797
▁struggling	-11.3797
▁Release	-11.38
▁Houston	-11.3802
热门	-11.3802
▁crimes	-11.3802
▁politicians	-11.3803
接待	-11.3804
进去	-11.3804
controller	-11.3804
构建	-11.3805
学科	-11.3806
语音	-11.3806
xd	-11.3807
ception	-11.3808
▁shoulder	-11.3808
围绕	-11.3809
帅	-11.3809
呈	-11.381
卸	-11.3811
▁Bishop	-11.3812
▁scenes	-11.3814
▁parameter	-11.3814
Description	-11.3814
▁alumni	-11.3815
Direct	-11.3817
家的	-11.3819
▁Avenue	-11.382
▁Miller	-11.3821
▁Anne	-11.3822
▁essentially	-11.3827
选手	-11.3829
Can	-11.383
难度	-11.3831
▁ethnic	-11.3831
slide	-11.3832
那种	-11.3833
捷	-11.3833
ured	-11.3834
▁occasion	-11.3834
对我们	-11.3836
▁Indiana	-11.3836
炼	-11.3838
▁expanded	-11.3839
stein	-11.3841
boss	-11.3841
▁Bad	-11.3842
▁Forest	-11.3842
":	-11.3843
▁Aug	-11.3843
▁transmission	-11.3843
▁embrace	-11.3845
▁ministry	-11.3846
低于	-11.3848
思考	-11.3849
horn	-11.3855
▁comic	-11.3855
淘	-11.3859
板块	-11.386
▁equally	-11.386
掌	-11.3863
rub	-11.3863
颗粒	-11.3863
▁Dutch	-11.3864
▁Month	-11.3864
▁naturally	-11.3865
恋	-11.3865
▁trick	-11.3865
他人	-11.3866
▁heads	-11.3866
▁sacrifice	-11.3867
looking	-11.387
friendly	-11.387
ground	-11.3873
氏	-11.3874
▁knee	-11.3876
青春	-11.3877
浦	-11.3877
▁western	-11.3878
▁Cost	-11.3878
▁Vietnam	-11.3879
最多	-11.3879
▁requests	-11.3879
▁thick	-11.3879
▁concluded	-11.388
▁Peace	-11.3881
是否有	-11.3881
▁Magazine	-11.3881
赏	-11.3881
▁Wales	-11.3882
播放	-11.3882
药品	-11.3883
▁NS	-11.3883
▁uniform	-11.3886
▁Jun	-11.3888
kind	-11.3888
Rule	-11.389
▁cluster	-11.389
▁gay	-11.3891
stop	-11.3892
▁Eli	-11.3892
选项	-11.3892
饼	-11.3892
ifies	-11.3892
显得	-11.3894
▁Band	-11.3894
){	-11.3895
浩	-11.3897
▁vulnerable	-11.3898
MD	-11.3898
▁Lewis	-11.3899
▁integration	-11.3902
示范	-11.3902
信用	-11.3902
Window	-11.3902
scope	-11.3905
同步	-11.3907
▁applying	-11.3907
ech	-11.3908
▁initiatives	-11.3908
主张	-11.3908
一部分	-11.3909
超市	-11.3909
致力于	-11.391
模具	-11.3911
after	-11.3912
owner	-11.3913
▁assignment	-11.3914
有个	-11.3914
▁Tag	-11.3914
▁Ran	-11.3914
橡胶	-11.3916
Smart	-11.3916
▁density	-11.3918
▁saving	-11.3919
atic	-11.3921
interpret	-11.3922
玛	-11.3922
▁hoping	-11.3922
▁Safety	-11.3925
rob	-11.3925
或是	-11.3926
▁Memorial	-11.3927
梦想	-11.3927
▁##	-11.3931
Sub	-11.3931
▁voting	-11.3933
▁incredibly	-11.3934
荷	-11.3935
差价	-11.3935
deb	-11.3935
女人	-11.3936
斑	-11.3936
另一	-11.3936
Pre	-11.3937
可以用	-11.3938
群体	-11.3941
天然	-11.3942
合法	-11.3946
▁underlying	-11.3946
旁	-11.3947
▁searching	-11.3948
▁announcement	-11.3948
隐	-11.3948
▁ordinary	-11.3948
深圳市	-11.3949
tive	-11.395
潜	-11.3951
▁accuracy	-11.3951
眼睛	-11.3952
仔细	-11.3953
▁Five	-11.3953
▁hosting	-11.3956
补发	-11.3957
▁Tel	-11.3957
的机会	-11.3957
转化	-11.3958
▁radical	-11.3958
▁Bab	-11.3959
▁royal	-11.3959
KEY	-11.396
▁Artist	-11.396
enable	-11.3967
plication	-11.3967
▁signature	-11.3967
般	-11.3968
far	-11.3969
▁golf	-11.397
揭	-11.3975
帽	-11.3975
强调	-11.3976
fect	-11.3976
讲解	-11.3977
lane	-11.3978
▁inner	-11.3978
臂	-11.3979
Follow	-11.3981
▁weren	-11.3988
天内	-11.3988
▁plain	-11.399
实行	-11.3991
上传	-11.3992
▁liked	-11.3992
ONE	-11.3992
赛事	-11.3992
etic	-11.3993
abilities	-11.3993
很抱歉	-11.3993
▁brothers	-11.3994
▁Brand	-11.3995
冷却	-11.3995
closure	-11.3996
死亡	-11.3998
一线	-11.3999
▁variables	-11.3999
een	-11.3999
▁immune	-11.4002
Don	-11.4003
▁profession	-11.4006
应对	-11.4009
Product	-11.4011
▁NFL	-11.4011
▁stem	-11.4013
做了	-11.4014
我们将	-11.4014
tical	-11.4015
▁vacation	-11.4015
▁engineer	-11.4016
支架	-11.4016
构	-11.4016
obs	-11.4016
▁Systems	-11.4017
dest	-11.4018
▁Dream	-11.4018
▁faces	-11.4019
ici	-11.4021
▁Low	-11.4021
dt	-11.4021
▁franchise	-11.4022
▁lifetime	-11.4022
早点	-11.4022
配备	-11.4022
▁Environmental	-11.4023
▁spouse	-11.4027
宣	-11.4027
▁Buy	-11.403
也就	-11.403
▁Steven	-11.4031
▁tower	-11.4031
小程序	-11.4033
gene	-11.4038
▁intervention	-11.4038
▁resident	-11.4038
▁Iowa	-11.4038
DL	-11.4039
▁revolution	-11.4039
▁petition	-11.404
▁Jacob	-11.404
▁Intel	-11.4043
▁PhD	-11.4044
▁Commun	-11.4046
小可爱	-11.4047
▁complain	-11.4049
▁nursing	-11.4049
稍等	-11.4049
rine	-11.405
▁Hell	-11.405
是不	-11.4052
▁Official	-11.4052
莲	-11.4052
elli	-11.4052
胸	-11.4053
Mobile	-11.4054
時	-11.4054
▁Ocean	-11.4055
Palestinian	-11.4055
舒服	-11.4056
Screen	-11.4059
前期	-11.4061
逐步	-11.4062
PH	-11.4062
▁limitations	-11.4064
▁Saudi	-11.4066
美好	-11.4066
迈	-11.4067
▁disorders	-11.407
日前	-11.4071
Load	-11.4073
迫	-11.4075
▁fraud	-11.4076
shire	-11.4077
▁thin	-11.4077
UM	-11.4079
Group	-11.408
IG	-11.4085
桂	-11.4085
fill	-11.4085
绳	-11.4086
▁restore	-11.4086
Entry	-11.4087
glu	-11.4089
▁jail	-11.4093
▁Cy	-11.4093
▁trials	-11.4095
比较多	-11.4096
COM	-11.4097
▁transferred	-11.4097
▁organisation	-11.4099
谱	-11.41
▁denied	-11.4102
▁Gallery	-11.4102
find	-11.4102
铁路	-11.4104
}[	-11.4104
▁Several	-11.4106
蜜	-11.4108
号码	-11.4109
答案	-11.411
产生的	-11.4111
要注意	-11.4112
control	-11.4112
SK	-11.4115
相应	-11.4116
生活中	-11.4117
▁Given	-11.4118
с	-11.4118
凭借	-11.4118
Call	-11.4118
oper	-11.4119
筑	-11.412
idx	-11.412
沟	-11.4121
跃	-11.4122
req	-11.4124
论坛	-11.4125
疾	-11.4125
▁Syria	-11.4126
▁pulled	-11.4127
▁reporter	-11.4128
ket	-11.4129
▁beneficial	-11.4132
▁Say	-11.4134
lis	-11.4136
had	-11.4138
▁furniture	-11.4139
▁ruling	-11.4139
via	-11.4139
呦	-11.414
休息	-11.4141
▁Ball	-11.4142
▁Oregon	-11.4143
煮	-11.4143
▁modify	-11.4143
▁bug	-11.4145
股份有限公司	-11.4146
▁certified	-11.4146
埃	-11.4146
幼儿	-11.4147
房地产	-11.4148
▁Reading	-11.4149
ND	-11.415
▁discrimination	-11.415
▁bag	-11.415
▁indicates	-11.4151
▁Annual	-11.4152
▁Alexander	-11.4152
▁Meanwhile	-11.4154
動	-11.4154
duction	-11.4157
▁margin	-11.4157
整合	-11.4158
浴	-11.4159
▁certification	-11.416
▁Search	-11.416
▁contracts	-11.416
▁hasn	-11.4161
岁的	-11.4161
则是	-11.4161
一项	-11.4161
Pr	-11.4162
场比赛	-11.4163
▁pregnancy	-11.4163
global	-11.4164
som	-11.4164
HP	-11.4164
胃	-11.4166
▁trigger	-11.4166
mpl	-11.4167
▁sectors	-11.4171
小组	-11.4171
▁loud	-11.4171
筹	-11.4174
原理	-11.4175
▁smoke	-11.4175
such	-11.4176
▁Pur	-11.4176
▁Berlin	-11.4176
▁concepts	-11.4178
沈	-11.4178
ille	-11.418
发货时间	-11.4181
▁everywhere	-11.4184
▁Sc	-11.4184
è	-11.4184
▁fewer	-11.4185
▁birds	-11.4187
的数据	-11.4187
▁Afghanistan	-11.4189
sphere	-11.419
▁ceremony	-11.419
▁override	-11.4191
涛	-11.4191
本发明	-11.4191
^*	-11.4192
▁Indonesia	-11.4194
明白	-11.4195
▁difficulty	-11.4196
▁promoting	-11.4197
GI	-11.4197
凌	-11.4197
▁attractive	-11.42
▁affiliate	-11.42
▁chances	-11.4201
》、《	-11.4206
▁periods	-11.4206
Connect	-11.4207
嗯	-11.4208
▁resolve	-11.4209
BP	-11.4213
电流	-11.4214
▁aimed	-11.4215
咖啡	-11.4215
▁violent	-11.4216
▁Ber	-11.4217
预期	-11.4217
insert	-11.4219
SEC	-11.422
▁mess	-11.422
就有	-11.4221
堡	-11.4221
▁Roger	-11.4222
▁documentation	-11.4224
千万	-11.4224
bul	-11.4228
▁Challenge	-11.4229
一般是	-11.423
便利	-11.423
▁HIV	-11.4232
eh	-11.4234
▁dealer	-11.4235
only	-11.4237
▁Anna	-11.4237
▁superior	-11.4237
▁rear	-11.4238
▁Tre	-11.4238
Save	-11.424
声明	-11.4243
▁anniversary	-11.4244
▁lease	-11.4244
▁Dave	-11.4245
▁emphasis	-11.4245
▁opinions	-11.4246
摸	-11.4247
的质量	-11.4247
▁discovery	-11.4248
印刷	-11.4249
▁offense	-11.425
Number	-11.4255
▁struck	-11.4255
配送	-11.4256
▁Hay	-11.4256
▁funny	-11.4259
zer	-11.4259
izer	-11.4259
岭	-11.426
▁gear	-11.4261
▁immigration	-11.4264
▁recipe	-11.4265
Ja	-11.4265
身份证	-11.4267
▁stability	-11.4267
▁traveling	-11.4269
Draw	-11.4269
并在	-11.427
Categories	-11.4272
稿	-11.4272
Option	-11.4272
▁sole	-11.4273
面试	-11.4274
▁liberal	-11.4276
均码	-11.4276
▁Revolution	-11.4277
任意	-11.4278
macro	-11.4278
Or	-11.4278
齿	-11.4278
入口	-11.4279
就在	-11.4279
▁Ash	-11.428
▁intense	-11.4281
日至	-11.4281
水果	-11.4281
▁advantages	-11.4282
▁Machine	-11.4282
▁continuous	-11.4283
饮食	-11.4283
gui	-11.4283
发放	-11.4284
ika	-11.4285
」，	-11.4285
▁Winter	-11.4286
▁demands	-11.4286
ben	-11.4287
正规	-11.4288
▁okay	-11.4289
▁yellow	-11.4289
▁Self	-11.4293
▁grateful	-11.4293
aux	-11.4293
import	-11.4293
暂时	-11.4294
▁bid	-11.4294
各地	-11.4295
ban	-11.4296
部位	-11.4297
Mar	-11.43
cake	-11.4301
nav	-11.4303
▁Ford	-11.4303
界面	-11.4303
▁churches	-11.4304
弃	-11.4305
▁weekly	-11.4306
▁democracy	-11.4307
怎么办	-11.4307
▁refused	-11.4308
▁deeper	-11.4309
udi	-11.4309
will	-11.4309
▁brown	-11.431
▁wisdom	-11.4313
ologist	-11.4313
观点	-11.4313
▁announce	-11.4314
▁foster	-11.4314
commerce	-11.4316
▁Roll	-11.4319
时效	-11.4319
巡	-11.4319
够	-11.432
▁Bri	-11.4321
▁inflation	-11.4322
大量的	-11.4322
▁Wisconsin	-11.4324
国外	-11.4325
unlikely	-11.4327
dol	-11.4327
▁Chair	-11.4328
▁establishment	-11.433
多久	-11.433
不行	-11.4331
▁echo	-11.4333
select	-11.4334
▁tune	-11.4334
Close	-11.4334
线下	-11.4334
▁dispute	-11.4335
拓展	-11.4336
耗	-11.4337
▁occupation	-11.4338
awa	-11.434
ope	-11.434
损	-11.4341
▁comply	-11.4341
null	-11.4342
谋	-11.4344
▁packages	-11.4344
target	-11.4344
稍	-11.4345
Meta	-11.4345
可能是	-11.4345
nia	-11.4349
▁instrument	-11.4351
ulate	-11.4352
Body	-11.4352
普遍	-11.4352
▁lawyers	-11.4352
协调	-11.4354
gun	-11.4354
幼	-11.4354
Handle	-11.4355
脏	-11.4356
不想	-11.4356
或者是	-11.4357
温暖	-11.4359
属性	-11.436
▁startup	-11.4363
dict	-11.4363
▁Philip	-11.4364
▁sections	-11.4365
ease	-11.4366
收件人	-11.4368
之日起	-11.4368
▁Mill	-11.437
Default	-11.437
喜爱	-11.4371
意思	-11.4372
▁controls	-11.4373
湖南	-11.4377
霞	-11.4377
技	-11.4378
▁crazy	-11.4378
健身	-11.438
▁harder	-11.4383
感情	-11.4384
▁modified	-11.4384
骑	-11.4384
▁electrical	-11.4386
▁Diego	-11.4386
lur	-11.4387
旅行	-11.4387
▁organize	-11.4387
乎	-11.4387
映	-11.4388
▁neck	-11.4388
素质	-11.4389
著	-11.4389
▁experiencing	-11.439
▁luck	-11.439
▁Assistant	-11.4391
的游戏	-11.4391
凭	-11.4392
耐心等待	-11.4394
变形	-11.4395
▁presidential	-11.4396
▁loves	-11.4397
偶	-11.4399
在这个	-11.4402
▁extract	-11.4407
▁mutual	-11.4409
强大的	-11.4409
秋冬	-11.4409
农民	-11.4411
▁seed	-11.4412
盈	-11.4416
专卖店	-11.4417
▁MD	-11.4418
心里	-11.4418
保留	-11.4419
▁algorithm	-11.442
support	-11.4421
截至	-11.4423
两年	-11.4423
▁Ontario	-11.4423
▁execution	-11.4425
弹性	-11.4425
▁mistake	-11.4427
▁officially	-11.4428
callback	-11.4428
▁Ce	-11.4428
更为	-11.4429
▁removal	-11.4431
▁Marine	-11.4431
icial	-11.4432
▁blend	-11.4433
训	-11.4433
Art	-11.4434
▁impression	-11.4434
仅仅	-11.4436
make	-11.444
▁compete	-11.4442
限量	-11.4444
quire	-11.4446
面膜	-11.445
拍照	-11.445
下次	-11.445
的过程中	-11.4451
▁恩恩	-11.4451
爽	-11.4451
▁Miami	-11.4452
▁Fan	-11.4452
▁estimates	-11.4453
▁somebody	-11.4456
bing	-11.4456
挤	-11.4456
▁meal	-11.4459
▁bedroom	-11.446
东方	-11.4461
week	-11.4462
UR	-11.4463
ela	-11.4463
▁Democrats	-11.4464
别的	-11.4465
▁nurse	-11.447
pen	-11.447
packet	-11.4471
▁Military	-11.4471
新鲜	-11.4472
供应商	-11.4473
▁emerging	-11.4476
olo	-11.4476
实验室	-11.4477
卖家	-11.4477
▁fiscal	-11.4478
点击查看	-11.448
▁bills	-11.4482
▁operated	-11.4483
▁Sand	-11.4484
rod	-11.4485
Target	-11.4486
▁generations	-11.4486
喜欢可以	-11.4486
▁Sin	-11.4487
▁Fred	-11.449
▁您的订单详情	-11.449
▁conversion	-11.4491
▁bias	-11.4492
▁beliefs	-11.4494
都没有	-11.4496
币	-11.4496
rack	-11.4498
nal	-11.4499
侠	-11.45
union	-11.45
sens	-11.4501
▁finds	-11.4501
aven	-11.4502
Stop	-11.4503
腾讯	-11.4504
migrant	-11.4504
预测	-11.4504
网址	-11.4505
▁alleged	-11.4505
意外	-11.451
▁clothing	-11.451
▁Youth	-11.451
child	-11.451
生意	-11.4512
Operation	-11.4513
▁Indeed	-11.4515
策划	-11.4517
close	-11.4517
tics	-11.4518
不管	-11.4518
美丽	-11.452
给个	-11.452
已签收	-11.452
▁Euro	-11.4521
▁collective	-11.4521
extbf	-11.4521
通风	-11.4522
stand	-11.4523
总体	-11.4528
▁Maryland	-11.453
数学	-11.453
琴	-11.453
机动车	-11.453
十二	-11.4532
▁Motor	-11.4532
Open	-11.4534
协	-11.4535
我们现在是亏本在冲量了	-11.4536
▁representatives	-11.4536
全体	-11.4537
▁athletes	-11.4539
Files	-11.4541
ote	-11.4545
▁Ron	-11.4547
▁marks	-11.4547
params	-11.4548
▁heavily	-11.4548
这边帮您	-11.455
地位	-11.4552
cross	-11.4552
aire	-11.4554
出去	-11.4555
pending	-11.4555
肖	-11.4557
solving	-11.4558
request	-11.4559
高中	-11.4559
virtual	-11.456
Mi	-11.4561
如需	-11.4562
▁Station	-11.4563
Parameter	-11.4564
round	-11.4565
光临	-11.4566
审理	-11.4568
养老	-11.4571
拒绝	-11.4571
▁tiny	-11.4572
的选择	-11.4572
▁Industry	-11.4572
大数据	-11.4574
种类	-11.4574
奔	-11.4574
▁baseball	-11.4574
▁printed	-11.4575
▁Patrick	-11.4575
aud	-11.4577
)->	-11.4578
linux	-11.4578
变成	-11.4581
▁presents	-11.4583
冬季	-11.4584
河北	-11.4589
▁ingredients	-11.459
▁lady	-11.459
▁forecast	-11.459
▁servant	-11.4591
fp	-11.4592
转换	-11.4593
机关	-11.4595
下去	-11.4596
永远	-11.4597
蔬菜	-11.4599
▁developers	-11.46
拜	-11.46
鬼	-11.46
ister	-11.4603
▁unexpected	-11.4605
立减	-11.4606
欲	-11.4608
▁voters	-11.4609
▁correctly	-11.4609
舍	-11.4609
春节	-11.461
▁carrier	-11.461
▁loving	-11.461
disable	-11.4611
shaped	-11.4618
▁linear	-11.462
Phi	-11.4622
▁blocks	-11.4623
▁myth	-11.4623
▁Everything	-11.4624
cam	-11.4624
纷纷	-11.4626
ador	-11.4627
▁resort	-11.4628
▁hide	-11.4629
下班了	-11.4633
路上	-11.4633
专项	-11.4636
▁pride	-11.4637
}}$	-11.4638
▁Exchange	-11.4638
▁parallel	-11.464
单独	-11.4642
▁attending	-11.4643
是一家	-11.4643
酱	-11.4645
▁farmers	-11.4646
窗口	-11.4646
㎡	-11.4647
gri	-11.4647
▁warrant	-11.4648
own	-11.465
▁engaging	-11.465
▁minimal	-11.4651
烈	-11.4652
▁moves	-11.4654
唇	-11.4656
protocol	-11.4657
▁mirror	-11.4658
▁Forum	-11.4659
▁suicide	-11.466
▁participated	-11.4661
迹	-11.4663
BOOL	-11.4664
四川省	-11.4664
finite	-11.4664
▁filing	-11.4665
eri	-11.4666
▁Sk	-11.4668
是要	-11.4669
ily	-11.4669
▁obligations	-11.467
common	-11.467
逾期	-11.4671
▁advocate	-11.4673
▁knock	-11.4673
达成	-11.4673
citizen	-11.4675
RD	-11.4677
lv	-11.4686
上门	-11.4687
bla	-11.4689
平方米	-11.469
winning	-11.4691
Why	-11.4692
记忆	-11.4692
jan	-11.4694
▁involvement	-11.4699
▁Tony	-11.4701
vas	-11.4702
▁rescue	-11.4703
Script	-11.4703
EG	-11.4704
rose	-11.4704
▁Writing	-11.4706
▁hospitals	-11.4706
dale	-11.4708
服务器	-11.4709
陆续	-11.471
▁Broad	-11.4711
ude	-11.4711
在中国	-11.4712
日起	-11.4713
amine	-11.4715
ull	-11.4716
RNA	-11.4717
uid	-11.4718
miss	-11.4719
公益	-11.472
的朋友	-11.472
▁Mus	-11.4722
设计师	-11.4723
wal	-11.4726
▁quote	-11.4726
FD	-11.4726
SG	-11.4727
Custom	-11.4728
纵	-11.4729
▁respective	-11.4731
▁Resources	-11.4733
▁photography	-11.4735
PK	-11.4737
出具	-11.474
tors	-11.4741
▁happiness	-11.4743
虽	-11.4744
口罩	-11.4744
emph	-11.4744
agon	-11.4745
bind	-11.4746
rock	-11.4746
罚	-11.4747
Dis	-11.4747
地板	-11.4747
▁Tar	-11.4748
▁photograph	-11.4749
抖音	-11.4749
▁psychological	-11.475
涂料	-11.4752
周围	-11.4754
▁admission	-11.4757
不要错过	-11.4757
Boot	-11.4758
ln	-11.4758
kill	-11.4759
Query	-11.4759
养殖	-11.476
▁Battle	-11.4761
▁somehow	-11.4761
▁publicly	-11.4761
geo	-11.4764
▁您的宝贝由中通快递发出	-11.4764
boy	-11.4766
▁constructed	-11.4768
pressed	-11.4769
罩	-11.477
起诉	-11.477
不知	-11.4772
赚钱	-11.4772
▁commit	-11.4772
▁speaker	-11.4773
薪	-11.4774
ITY	-11.4775
五星	-11.4776
++;	-11.4777
▁Clinton	-11.4778
pens	-11.478
机场	-11.478
MAC	-11.4781
▁addiction	-11.4781
▁breed	-11.4782
▁Hen	-11.4783
鹿	-11.4783
违法	-11.4784
normal	-11.4785
肠	-11.4785
Height	-11.4787
正确的	-11.4788
苑	-11.4789
▁participating	-11.4789
禁止	-11.479
wash	-11.479
唯	-11.4792
DIS	-11.4793
▁mood	-11.4793
▁Tennessee	-11.4793
pho	-11.4795
writer	-11.4795
Present	-11.4796
▁currency	-11.4798
▁motivate	-11.4799
▁passionate	-11.48
▁composed	-11.48
结婚	-11.4801
▁centuries	-11.4803
▁meaningful	-11.4803
▁persist	-11.4803
▁documentary	-11.4803
稀	-11.4804
营业	-11.4805
cellular	-11.4806
Line	-11.4807
▁authorized	-11.4807
▁horror	-11.4808
才会	-11.4809
▁Gre	-11.481
穿上	-11.4811
cess	-11.4812
流行	-11.4813
湖北	-11.4814
临床	-11.4816
▁terrorist	-11.4817
功效	-11.482
▁awesome	-11.482
eau	-11.4821
cade	-11.4823
▁Austin	-11.4824
态度	-11.4824
▁Maria	-11.4826
弗	-11.4828
▁performances	-11.4828
奶茶	-11.4831
狂	-11.4831
西安	-11.4832
这也是	-11.4833
的哦亲	-11.4834
▁preparing	-11.4836
Ba	-11.4837
▁adds	-11.4837
不易	-11.4839
ean	-11.484
▁entrance	-11.4845
▁reveal	-11.4847
UD	-11.4847
▁Senator	-11.4848
▁journalist	-11.4849
工商	-11.485
arr	-11.485
iter	-11.4852
▁Regulation	-11.4853
邮箱	-11.4854
Left	-11.4855
干部	-11.4855
不合适	-11.4855
EXT	-11.4855
▁Worth	-11.4857
hw	-11.4857
tam	-11.4861
security	-11.4861
委托	-11.4864
似	-11.4866
itive	-11.4869
▁preferred	-11.4871
现在的	-11.4871
▁infant	-11.4871
mov	-11.4872
分公司	-11.4872
▁physician	-11.4873
看到您	-11.4874
默认发	-11.4875
彻底	-11.4877
放置	-11.4879
▁gifts	-11.4883
ona	-11.4883
有什么疑问	-11.4884
▁shelter	-11.4885
▁agenda	-11.4885
▁fluid	-11.4886
门店	-11.4886
pg	-11.4888
▁humanity	-11.4888
▁dialogue	-11.4888
Part	-11.489
cycle	-11.4891
AST	-11.4891
谅解	-11.4894
肝	-11.4895
还需要	-11.4896
Range	-11.4897
长的	-11.4898
梯	-11.4898
给您处理	-11.49
▁Moon	-11.49
riot	-11.49
上诉	-11.4902
▁motivation	-11.4903
▁singing	-11.4903
▁displayed	-11.4908
责	-11.4908
妈	-11.491
▁adoption	-11.4912
便是	-11.4913
▁Working	-11.4914
▁Convention	-11.4914
▁perception	-11.4915
Sw	-11.4916
▁lecture	-11.4917
▁coal	-11.4918
city	-11.4918
得到了	-11.492
舒	-11.4921
轴承	-11.4922
enter	-11.4922
▁affairs	-11.4923
翼	-11.4923
瘦	-11.4924
ien	-11.4925
青海	-11.4926
申报	-11.4929
rad	-11.4931
人工智能	-11.4932
报警	-11.4933
缸	-11.4934
▁resume	-11.4935
physics	-11.4935
////////////////	-11.4936
language	-11.4938
fb	-11.4939
▁Bowl	-11.4941
▁enforce	-11.4942
▁Jason	-11.4943
▁dual	-11.4944
▁Airport	-11.4945
维持	-11.4946
！】	-11.4946
孕	-11.4947
其次	-11.4948
interface	-11.4948
▁Archives	-11.495
thread	-11.495
▁Mission	-11.4952
▁legacy	-11.4952
▁interviews	-11.4952
美容	-11.4954
过的	-11.4958
疑问	-11.4958
居住	-11.4959
▁ranking	-11.496
看来	-11.496
辰	-11.496
▁gathering	-11.4961
▁classical	-11.4961
ush	-11.4962
况	-11.4964
提交订单	-11.4964
保存	-11.4964
Tag	-11.4965
▁Pope	-11.4967
▁frequent	-11.4968
▁defect	-11.497
诚信	-11.497
批发	-11.4972
我们店铺	-11.4973
▁Between	-11.4975
适	-11.4976
▁mining	-11.4976
while	-11.4977
▁lender	-11.4979
▁dust	-11.498
zu	-11.4981
还款	-11.4983
如果是	-11.4984
▁satisfied	-11.4985
uous	-11.4986
年级	-11.4986
oz	-11.4987
一定会	-11.4988
pine	-11.499
▁arrival	-11.499
▁lucky	-11.4991
晋	-11.4992
▁exceptional	-11.4993
phe	-11.4994
▁Climate	-11.4995
▁Square	-11.4995
接近	-11.4996
ulator	-11.4996
ced	-11.4996
▁settled	-11.4996
不客气	-11.4998
喜欢就	-11.4999
▁theatre	-11.4999
美元	-11.5
xD	-11.5
▁experimental	-11.5
▁handling	-11.5002
holders	-11.5003
▁determination	-11.5003
牢	-11.5006
▁scores	-11.5008
坑	-11.5008
private	-11.5009
road	-11.501
ARD	-11.5014
▁Zo	-11.5015
▁Mexican	-11.5016
brew	-11.5016
阅	-11.5016
保险公司	-11.5018
▁modification	-11.5018
▁Political	-11.502
md	-11.5022
）：	-11.5023
immer	-11.5023
前往	-11.5028
vir	-11.5028
traits	-11.5028
兼	-11.5029
ographic	-11.503
▁actively	-11.5032
Virtual	-11.5032
▁Nigeria	-11.5033
▁addresses	-11.5033
点击链接	-11.5033
带来了	-11.5035
▁duration	-11.5039
ounce	-11.5039
▁Harvard	-11.5041
陵	-11.5042
▁threats	-11.5042
INE	-11.5043
▁Sri	-11.5048
▁Wal	-11.5048
▁moon	-11.5049
▁Mind	-11.505
那样	-11.5052
▁independence	-11.5057
▁Jen	-11.5057
▁wondering	-11.5061
夏天	-11.5062
NP	-11.5063
容量	-11.5064
Session	-11.5065
行驶	-11.5068
▁Nature	-11.507
便捷	-11.5072
▁movements	-11.5072
lc	-11.5074
真空	-11.5075
声音	-11.5076
▁interactions	-11.5076
pragma	-11.5077
悠	-11.5077
QQ	-11.5078
虹	-11.508
传奇	-11.5081
您对	-11.5081
▁Much	-11.5081
粮	-11.5081
民警	-11.5082
pixel	-11.5084
▁Atlantic	-11.5086
▁sorry	-11.5088
▁Authority	-11.5088
常见的	-11.5089
▁Hot	-11.5089
▁Money	-11.509
▁Captain	-11.5092
▁poker	-11.5093
▁artificial	-11.5093
READ	-11.5095
硬件	-11.5095
▁Regional	-11.5095
lb	-11.5097
一下哦	-11.5097
inger	-11.5098
▁conclude	-11.5099
▁falls	-11.5102
▁Chamber	-11.5102
花园	-11.5103
▁Atlanta	-11.5105
Player	-11.5108
▁screening	-11.511
Stat	-11.5111
▁unto	-11.5111
got	-11.5113
posing	-11.5113
▁Paper	-11.5114
▁spectrum	-11.5114
axis	-11.5116
▁agreements	-11.5116
▁grounds	-11.5118
大赛	-11.5119
全程	-11.5119
妇	-11.512
说话	-11.512
齐全	-11.5123
危害	-11.5125
蔡	-11.5125
▁luxury	-11.5125
▁Bachelor	-11.5126
▁odd	-11.513
满意的	-11.513
天下	-11.513
户外	-11.5131
餐厅	-11.5132
variant	-11.5132
发货的哦	-11.5133
greg	-11.5133
NET	-11.5134
tine	-11.5138
▁consultant	-11.5139
DT	-11.5139
▁tension	-11.5142
▁availability	-11.5144
部署	-11.5144
遮	-11.5144
父亲	-11.5145
▁biological	-11.5146
▁expense	-11.5148
浏览	-11.5149
▁fishing	-11.5153
▁Lion	-11.5154
设定	-11.5156
▁versus	-11.5157
我们会尽快	-11.5158
▁nerve	-11.5159
▁loose	-11.5161
lee	-11.5161
plug	-11.5162
▁elsewhere	-11.5162
▁discussions	-11.5163
▁您好亲	-11.5163
用户的	-11.5165
▁Allen	-11.5166
错过	-11.5166
▁Practice	-11.5166
append	-11.5167
闲	-11.5167
幸	-11.5167
坚	-11.5167
article	-11.5168
！（	-11.517
▁Rad	-11.517
bre	-11.5171
地下	-11.5172
国产	-11.5172
▁intent	-11.5173
▁racial	-11.5174
bay	-11.5176
▁violation	-11.5181
itt	-11.5181
▁Dog	-11.5182
实际上	-11.5182
耳机	-11.5184
同一	-11.5186
耐心	-11.5187
TEST	-11.5188
▁shipping	-11.519
▁designated	-11.5191
上诉人	-11.5191
冒	-11.5192
送达	-11.5192
祖	-11.5193
只需要	-11.5194
generic	-11.5194
generation	-11.5194
▁Oxford	-11.5194
▁refuse	-11.5196
元包邮	-11.52
什么时候发货	-11.5201
Ne	-11.5201
MIT	-11.5202
▁Math	-11.5202
Comp	-11.5203
Util	-11.5204
▁financing	-11.5205
▁应付款总金额为	-11.5205
▁titles	-11.5206
偿还	-11.5207
yu	-11.5209
相关的	-11.5211
▁bathroom	-11.5211
▁advisor	-11.5211
yer	-11.5212
cop	-11.5215
事项	-11.5215
很容易	-11.5216
rag	-11.5219
false	-11.5221
切割	-11.5221
▁oldest	-11.5222
▁poetry	-11.5223
▁spell	-11.5225
ott	-11.5227
Ca	-11.5228
ICE	-11.5229
▁publisher	-11.5232
也许	-11.5233
▁Drug	-11.5235
务必	-11.5237
访问	-11.5237
部件	-11.5237
亿美元	-11.5239
不良	-11.5239
mut	-11.524
MODE	-11.5244
▁targeted	-11.5247
▁silent	-11.5248
git	-11.5248
factor	-11.5249
Net	-11.5251
身高体重	-11.5252
▁ultimate	-11.5252
精致	-11.5254
图像	-11.5255
▁Leader	-11.5258
Develop	-11.5259
①	-11.5259
▁captured	-11.5259
files	-11.526
▁Creek	-11.5264
▁Bureau	-11.5265
珍	-11.5266
Sa	-11.5269
演员	-11.5269
的特点	-11.5269
Port	-11.5271
jack	-11.5274
▁thirty	-11.5274
national	-11.5275
尊	-11.5277
▁lowest	-11.5279
▁honour	-11.5279
Thr	-11.5279
Lo	-11.5282
最重要的	-11.5285
ulating	-11.5286
▁thou	-11.5286
▁objectives	-11.5286
Options	-11.5286
▁Victoria	-11.5288
魏	-11.5289
▁designer	-11.5292
easing	-11.5293
▁Born	-11.5294
Environment	-11.5294
先后	-11.5295
▁tackle	-11.5295
eld	-11.5296
会出现	-11.5297
该公司	-11.5297
▁armed	-11.5298
})$	-11.5298
爱情	-11.5299
▁probability	-11.53
大气	-11.5301
cial	-11.5302
第一个	-11.5304
conv	-11.5304
指定快递	-11.5305
加购	-11.5305
▁medication	-11.5306
Inter	-11.5306
«	-11.5307
CV	-11.5307
wel	-11.5308
昂	-11.5308
便于	-11.531
▁seal	-11.5314
▁votes	-11.5315
safe	-11.5315
▁Brook	-11.5315
sized	-11.5315
拖把	-11.5316
龄	-11.5318
▁Jerusalem	-11.5318
▁Everyone	-11.5318
▁banking	-11.532
驻	-11.5321
lyn	-11.5322
▁Chairman	-11.5324
Jo	-11.5325
▁preserve	-11.5325
▁stayed	-11.5326
wick	-11.5326
▁flexible	-11.5327
PF	-11.5327
▁instruments	-11.5327
wind	-11.5328
▁Fran	-11.5328
ré	-11.5329
愿意	-11.533
mur	-11.5331
ava	-11.5333
▁Looking	-11.5333
dding	-11.5334
年轻人	-11.5334
权益	-11.5337
wl	-11.5338
亚洲	-11.5338
▁observe	-11.5339
引发	-11.534
pool	-11.534
Length	-11.5341
▁intend	-11.5342
印象	-11.5344
▁preach	-11.5344
▁lists	-11.5344
品牌的	-11.5345
▁detection	-11.5347
愈	-11.5348
过了	-11.5348
▁tomorrow	-11.5349
RM	-11.5351
▁prevention	-11.5351
▁conventional	-11.5351
about	-11.5353
▁kingdom	-11.5353
▁replied	-11.5354
一路	-11.5354
▁Labor	-11.5356
卢	-11.5356
疗	-11.5357
▁Silver	-11.5358
那就	-11.5358
dist	-11.5359
▁lights	-11.5359
asi	-11.5359
▁dental	-11.536
辛苦	-11.536
▁impacts	-11.5361
responsibilities	-11.5363
restrict	-11.5367
者的	-11.5368
fresh	-11.5369
▁Rod	-11.5369
esh	-11.5369
赫	-11.537
▁Cri	-11.5371
placement	-11.5371
▁ships	-11.5373
writing	-11.5374
天无理由退换货	-11.5374
slave	-11.5375
▁progressive	-11.5376
物业	-11.5376
Init	-11.5376
Web	-11.5379
缺乏	-11.5379
gla	-11.538
▁Disease	-11.5381
tribu	-11.5382
牧	-11.5382
我们可以	-11.5382
▁blow	-11.5383
▁complaint	-11.5383
忘记	-11.5383
▁clubs	-11.5385
nbsp	-11.5385
收到货后	-11.5386
京东	-11.5387
▁Ask	-11.5389
愉快	-11.539
▁visa	-11.539
fn	-11.539
而在	-11.5391
携带	-11.5391
心中	-11.5392
pes	-11.5393
▁Championships	-11.5394
表演	-11.5394
感受到	-11.5395
一边	-11.5395
vor	-11.5396
安排发出	-11.5396
▁improvements	-11.5398
▁alarm	-11.5399
osa	-11.5399
房间	-11.5403
成就	-11.5405
午	-11.5405
▁seats	-11.5406
Mu	-11.5409
为你	-11.5409
▁Ci	-11.5409
小客服	-11.541
这位	-11.5411
▁salary	-11.5413
▁episodes	-11.5414
河北省	-11.5414
▁Coach	-11.5415
▁reply	-11.5416
▁invite	-11.5416
tier	-11.5417
▁wound	-11.5417
ón	-11.5418
proc	-11.5418
▁Amendment	-11.5418
▁Ms	-11.5419
AU	-11.542
▁Historic	-11.5421
▁Seattle	-11.5422
▁Results	-11.5423
▁Duke	-11.5425
▁Computer	-11.5426
律	-11.5427
▁remarkable	-11.5429
cock	-11.543
ightarrow	-11.5431
▁staying	-11.5432
▁criticism	-11.5434
同事	-11.5436
快来点开看看吧	-11.5438
落地	-11.5438
营造	-11.5439
▁reserve	-11.544
▁您的宝贝由圆通速递发出	-11.544
▁strict	-11.5442
▁gather	-11.5442
NF	-11.5443
十年	-11.5444
Free	-11.5444
更高	-11.5445
MAN	-11.5447
防火	-11.5447
rust	-11.5447
▁Dark	-11.5449
fragment	-11.545
▁mistakes	-11.545
proto	-11.5451
process	-11.5452
表明	-11.5458
可以通过	-11.5458
▁leak	-11.5464
LINE	-11.5465
还有什么	-11.5465
▁Planning	-11.5466
您放心	-11.5466
Byte	-11.5467
▁viewed	-11.547
传统的	-11.5471
MASK	-11.5472
▁publishing	-11.5472
▁friendship	-11.5473
▁voted	-11.5475
dimensional	-11.5476
▁Notes	-11.5476
Enter	-11.5479
VO	-11.5479
▁empower	-11.5482
院校	-11.5482
特价	-11.5484
呼吸	-11.5484
à	-11.5484
▁obligation	-11.5484
儿子	-11.5485
▁Vegas	-11.5485
Match	-11.5488
的能力	-11.5488
▁utility	-11.5489
▁gaming	-11.5489
Per	-11.5489
▁deemed	-11.5491
▁Song	-11.5492
气质	-11.5495
▁penalty	-11.5495
output	-11.5496
▁notification	-11.5496
join	-11.5498
rect	-11.5498
Internal	-11.5499
礼物	-11.55
楚	-11.5501
带有	-11.5501
照明	-11.5501
病毒	-11.5503
有需要	-11.5504
巧	-11.5505
▁alert	-11.5506
pod	-11.5508
▁Village	-11.5509
SUV	-11.551
▁pregnant	-11.5511
车载	-11.5513
冬天	-11.5514
地铁	-11.5518
▁Sho	-11.552
▁rival	-11.5523
师傅	-11.5523
}$,	-11.5523
如果有	-11.5523
独特的	-11.5525
Gamma	-11.5525
▁wins	-11.5525
关注店铺	-11.5526
Parent	-11.5528
考察	-11.553
standing	-11.553
Sp	-11.5531
▁Room	-11.5533
▁isolated	-11.5534
Break	-11.5536
至于	-11.5537
▁terrible	-11.5537
▁prediction	-11.5539
青岛	-11.554
▁Seven	-11.554
anna	-11.5541
mos	-11.5541
tl	-11.5543
激	-11.5544
IX	-11.5544
▁satisfaction	-11.5544
Start	-11.5545
到位	-11.5546
defined	-11.5547
orderid	-11.5547
▁tape	-11.5547
▁gotten	-11.5549
键	-11.5551
▁civilian	-11.5551
▁hiring	-11.5552
▁Ross	-11.5554
一直在	-11.5555
家用	-11.5557
想象	-11.5557
妹	-11.556
▁conversations	-11.5561
OF	-11.5564
了很多	-11.5564
Char	-11.5565
委会	-11.5566
女孩	-11.5568
▁gathered	-11.5569
▁flavor	-11.5569
▁insights	-11.5569
▁tired	-11.557
▁deny	-11.557
房产	-11.5572
▁Honor	-11.5573
▁courage	-11.5574
领域的	-11.5576
eck	-11.5577
▁Meeting	-11.5577
Book	-11.5578
积累	-11.5578
慧	-11.558
▁Kat	-11.5581
ault	-11.5584
Person	-11.5584
迁	-11.5585
真是	-11.5586
丢	-11.5587
▁rarely	-11.5588
汗	-11.559
his	-11.559
▁bonus	-11.5591
▁lovely	-11.5592
拍下立减	-11.5593
对其	-11.5594
}=	-11.5595
▁Netherlands	-11.5598
依旧	-11.5599
▁hearts	-11.5599
nonatomic	-11.5599
▁Malaysia	-11.5601
摄影	-11.5601
胜利	-11.5601
></	-11.5604
complete	-11.5605
宠物	-11.5607
▁fiber	-11.5607
▁###	-11.5608
级别	-11.561
本地	-11.5611
Arm	-11.5611
▁moderate	-11.5612
▁evident	-11.5612
▁computers	-11.5612
hom	-11.5612
▁calculated	-11.5614
收到后	-11.5615
Min	-11.5616
晒图	-11.5617
▁affects	-11.5617
▁Bull	-11.5617
ching	-11.5618
STATUS	-11.5619
▁grants	-11.562
元哦	-11.5621
ibly	-11.5621
▁Scottish	-11.5622
说道	-11.5622
TOR	-11.5623
▁Fri	-11.5623
虚拟	-11.5624
广西	-11.5625
Action	-11.5626
腹	-11.5626
电气	-11.5627
▁apparent	-11.5627
佩	-11.5628
▁circuit	-11.5633
▁acquire	-11.5637
▁Fin	-11.5637
▁difficulties	-11.5637
▁silence	-11.5638
▁musicians	-11.564
也就是	-11.564
pair	-11.5641
用途	-11.5642
bie	-11.5642
▁securities	-11.5643
海南	-11.5643
出现了	-11.5643
Double	-11.5643
释放	-11.5644
您在小店购买的宝	-11.5645
uit	-11.5645
的第一	-11.5645
▁fraction	-11.5647
鸣	-11.565
鸿	-11.565
成为了	-11.5652
▁mechanisms	-11.5652
客户的	-11.5653
▁Classic	-11.5654
▁notion	-11.5654
这款宝贝	-11.5656
②	-11.5656
传输	-11.5658
▁eliminate	-11.5659
▁targets	-11.5659
ATE	-11.5661
ature	-11.5661
▁weigh	-11.5662
随意	-11.5662
神经	-11.5663
sie	-11.5663
>&	-11.5664
xA	-11.5666
▁spark	-11.5667
session	-11.5667
安徽省	-11.5668
gif	-11.5668
tv	-11.5668
img	-11.5669
▁Ul	-11.5669
▁Lincoln	-11.567
▁meets	-11.5671
pla	-11.5671
▁march	-11.5672
我会	-11.5672
▁destruction	-11.5672
层次	-11.5672
你可以	-11.5673
TB	-11.5674
Clear	-11.5675
▁Anthony	-11.5676
验	-11.5676
爆款	-11.5677
pon	-11.5677
subset	-11.5678
密度	-11.5678
模板	-11.568
▁pour	-11.568
▁calculation	-11.5682
厨	-11.5682
买一送一	-11.5682
▁lesson	-11.5685
▁piano	-11.5686
rang	-11.5689
埋	-11.569
民族	-11.5691
▁reflection	-11.5693
齿轮	-11.5695
▁celebrated	-11.5695
eration	-11.5696
分配	-11.57
gers	-11.57
可见	-11.5702
▁purchasing	-11.5705
iest	-11.5706
▁pastor	-11.5707
以上的	-11.5707
access	-11.5707
ima	-11.5709
Our	-11.571
jet	-11.5712
污水	-11.5713
▁architect	-11.5713
desc	-11.5714
亲可以	-11.5714
▁favourite	-11.5714
occ	-11.5715
▁Mayor	-11.5717
▁conservation	-11.5718
▁roots	-11.5719
migration	-11.5723
Enable	-11.5723
release	-11.5724
▁hell	-11.5726
▁exploring	-11.5726
▁minds	-11.5727
太大	-11.5727
趣	-11.5729
▁Harris	-11.573
对应的	-11.5731
▁Besides	-11.5731
纠纷	-11.5733
▁operational	-11.5733
兴趣	-11.5733
口碑	-11.5735
RX	-11.5735
▁buyers	-11.5736
may	-11.5736
chu	-11.5736
竞技	-11.5737
的应用	-11.5737
际	-11.5738
▁Shar	-11.5742
command	-11.5742
▁Premier	-11.5744
tress	-11.5746
fast	-11.5749
截止	-11.575
▁shoes	-11.5751
朵	-11.5751
公路	-11.5752
补贴	-11.5752
plo	-11.5752
▁oral	-11.5753
rule	-11.5754
▁solely	-11.5754
▁Cambridge	-11.5755
恰	-11.5755
▁rational	-11.5756
IB	-11.5757
尽早	-11.5758
关心	-11.5761
jae	-11.5763
▁climb	-11.5766
▁Alabama	-11.5767
交付	-11.5767
剧情	-11.5772
setting	-11.5772
我们在	-11.5772
▁agricultural	-11.5776
ARE	-11.5777
会给您	-11.5778
▁considerable	-11.5778
婷	-11.5779
prov	-11.5779
兔	-11.578
▁suppose	-11.578
▁photographs	-11.5781
▁Gun	-11.5783
多样	-11.5783
实名	-11.5783
诊断	-11.5784
▁statistical	-11.5785
▁bath	-11.5787
星期	-11.5788
验证	-11.5788
itan	-11.5789
▁Ak	-11.579
▁analyze	-11.579
巨大	-11.579
工程师	-11.5791
▁cricket	-11.5791
was	-11.5792
冻	-11.5793
可以穿	-11.5793
▁cinema	-11.5795
▁popularity	-11.5797
不予	-11.5798
MU	-11.5798
▁checking	-11.5799
BT	-11.5799
▁signing	-11.58
武器	-11.5801
▁jury	-11.5804
▁ruin	-11.5804
也可	-11.5806
Commerce	-11.5807
▁wage	-11.5807
所述的	-11.5808
chip	-11.581
奋	-11.5811
▁Medi	-11.5814
信心	-11.5814
接收	-11.5815
▁audit	-11.5816
席	-11.5816
国庆	-11.5817
伏	-11.5817
斜	-11.5817
pid	-11.5819
▁argued	-11.5821
Instance	-11.5822
消耗	-11.5822
xml	-11.5823
DEBUG	-11.5824
chen	-11.5825
注意事项	-11.5825
廉	-11.5826
▁ranked	-11.5828
产量	-11.5828
筛	-11.5828
▁Chan	-11.5829
的呢亲	-11.583
袖	-11.5831
▁scenario	-11.5832
▁roads	-11.5832
重复	-11.5832
pub	-11.5834
是没有	-11.5834
▁Anderson	-11.5834
occupied	-11.5837
▁sons	-11.5837
▁Turn	-11.5837
Display	-11.5838
▁conviction	-11.584
椅	-11.5841
Output	-11.5841
para	-11.5843
董	-11.5844
inate	-11.5844
▁Fellow	-11.5844
▁disabled	-11.5847
▁hybrid	-11.5847
Provider	-11.5848
审查	-11.5848
▁experiments	-11.5848
使用寿命	-11.5849
email	-11.585
钢管	-11.585
她们	-11.585
▁volunteers	-11.5851
灾	-11.5852
▁withdraw	-11.5852
Handler	-11.5853
azi	-11.5855
Mail	-11.5856
▁Temple	-11.5859
white	-11.586
pol	-11.5862
按摩	-11.5862
avail	-11.5862
▁manufacturer	-11.5863
▁Kentucky	-11.5864
PG	-11.5864
▁coronavirus	-11.5865
商城	-11.5865
竖	-11.5866
证实	-11.5867
▁physically	-11.5868
▁assumed	-11.5869
iation	-11.587
▁betting	-11.5872
INFO	-11.5872
转让	-11.5873
您是	-11.5874
MW	-11.5876
森林	-11.5877
▁repeated	-11.5878
ua	-11.5878
合金	-11.5879
▁Oil	-11.5879
morph	-11.5879
prob	-11.5882
简约	-11.5883
GDP	-11.5883
传递	-11.5883
▁mandate	-11.5884
▁decreased	-11.5885
吕	-11.5885
Audio	-11.5886
magnetic	-11.5886
▁entities	-11.5887
把握	-11.5889
▁gross	-11.5889
Comm	-11.589
▁pathway	-11.5892
母亲	-11.5892
Conf	-11.5893
←	-11.5893
用来	-11.5893
arian	-11.5893
▁earnings	-11.5894
▁photographer	-11.5894
▁manufacturers	-11.5896
短信	-11.5897
ART	-11.59
亭	-11.59
▁Years	-11.5903
CAN	-11.5903
otic	-11.5903
▁heritage	-11.5903
▁protecting	-11.5903
Button	-11.5905
depth	-11.5905
▁flying	-11.5905
领取优惠券	-11.5905
一批	-11.5907
股权	-11.5907
契	-11.5907
▁Tips	-11.5907
以便	-11.5907
就不	-11.5908
▁Experience	-11.591
常见	-11.5911
▁nomination	-11.5912
▁Kelly	-11.5912
的功能	-11.5913
是不是找不到	-11.5914
▁Mont	-11.5915
epsilon	-11.5915
基本上	-11.5915
BD	-11.5915
抛	-11.5916
mental	-11.5917
差不多	-11.5917
plus	-11.5918
小哥哥	-11.5918
羽	-11.592
▁strip	-11.5922
▁curriculum	-11.5922
iel	-11.5924
RES	-11.5924
▁fitness	-11.5928
▁inclusion	-11.593
▁Cook	-11.5931
展览	-11.5931
▁nonprofit	-11.5931
加入购物车	-11.5933
▁Lead	-11.5933
景观	-11.5934
▁posting	-11.5935
▁attempted	-11.5936
operative	-11.5936
▁genes	-11.5936
Copy	-11.5939
强烈	-11.594
执法	-11.5941
▁Pet	-11.5941
离子	-11.5945
mock	-11.5945
▁pushed	-11.5946
▁brilliant	-11.5946
▁Sol	-11.5947
▁Kil	-11.5948
▁examined	-11.5948
Vi	-11.5949
▁Clo	-11.5952
▁cultures	-11.5953
的安全	-11.5953
汁	-11.5958
▁Want	-11.5958
购买的	-11.596
精度	-11.5961
产品质量	-11.5962
▁bass	-11.5963
结算	-11.5964
▁Republicans	-11.5966
cil	-11.5966
霍	-11.5967
compatible	-11.5968
▁observation	-11.5968
jar	-11.5968
辅	-11.5968
博士	-11.5968
的表现	-11.5969
▁specialist	-11.5969
•	-11.5971
对应	-11.5972
rib	-11.5974
无限	-11.5975
莉	-11.5976
津	-11.5977
Num	-11.5977
精品	-11.5978
▁aggressive	-11.598
安徽	-11.598
▁pounds	-11.598
▁absorb	-11.5981
无忧	-11.5985
patient	-11.5986
▁Bla	-11.5986
lean	-11.5986
▁Upon	-11.5987
▁Limited	-11.5987
gus	-11.5988
rp	-11.5988
▁Ap	-11.5988
行情	-11.5991
▁proceedings	-11.5993
驱	-11.5994
▁trauma	-11.5994
Po	-11.5994
岳	-11.5995
灌	-11.5996
紧张	-11.5998
著名	-11.5998
▁responded	-11.6
▁titled	-11.6
有利于	-11.6001
therapist	-11.6001
很有	-11.6001
▁publications	-11.6002
體	-11.6002
味道	-11.6008
▁enables	-11.6008
apt	-11.6009
cpu	-11.6009
peri	-11.6009
DMA	-11.601
采集	-11.6011
▁Plant	-11.6011
是对	-11.6017
▁roughly	-11.6017
▁Hor	-11.6019
▁Dallas	-11.6021
▁YOU	-11.6021
fish	-11.6022
截	-11.6022
轨	-11.6023
▁Give	-11.6025
Memory	-11.6026
ante	-11.6026
▁accompanied	-11.6027
▁manual	-11.6029
ANT	-11.6031
好像	-11.6032
▁hence	-11.6033
快捷	-11.6033
住宅	-11.6034
ried	-11.6034
EF	-11.6034
出售	-11.6035
▁hormone	-11.6036
碗	-11.6036
▁structural	-11.6036
商场	-11.6036
▁Whit	-11.6037
leaf	-11.6038
工人	-11.6039
STATE	-11.6039
rows	-11.6041
石油	-11.6041
▁Jul	-11.6042
竞争力	-11.6044
queen	-11.6046
▁Clean	-11.6048
Builder	-11.6048
▁Freedom	-11.6051
surprising	-11.6053
▁steal	-11.6054
Complete	-11.6054
▁Ukrainian	-11.6055
绕	-11.6056
▁Interest	-11.6057
期货	-11.6058
摄	-11.6058
encies	-11.6059
▁Had	-11.6059
美观	-11.6059
▁Very	-11.6059
▁curious	-11.606
节省	-11.6061
几年	-11.6061
▁influenced	-11.6062
▁romantic	-11.6062
脂	-11.6064
▁legitimate	-11.6064
▁bunch	-11.6066
▁Corn	-11.6066
zen	-11.6066
英寸	-11.6069
Page	-11.6069
▁Hal	-11.607
hit	-11.607
ABC	-11.6072
的目的	-11.6074
浇	-11.6075
▁socio	-11.6075
返回	-11.6075
▁organisations	-11.6075
▁diagnosed	-11.6076
cert	-11.6076
Agent	-11.6077
▁deadline	-11.6077
json	-11.6079
method	-11.6082
▁Currently	-11.6082
总经理	-11.6084
國	-11.6085
元起	-11.6085
来看看	-11.6088
▁Hamilton	-11.6088
ego	-11.6088
▁bowl	-11.6088
▁downtown	-11.6089
▁qualify	-11.609
ugg	-11.6091
integer	-11.6091
chain	-11.6093
▁visits	-11.6094
▁constitutional	-11.6095
▁identification	-11.6095
▁BBC	-11.6095
VAL	-11.6099
▁adverse	-11.6099
family	-11.61
▁labour	-11.6101
Connection	-11.6102
两件	-11.6104
排放	-11.6105
桑	-11.6108
魅力	-11.6108
大幅	-11.6108
pole	-11.6111
▁headed	-11.6112
▁disabilities	-11.6113
▁desert	-11.6113
▁tied	-11.6114
豪华	-11.6116
▁hadn	-11.6116
pri	-11.6118
▁convey	-11.6118
Wait	-11.6118
NSString	-11.6119
hur	-11.612
atom	-11.612
的颜色	-11.612
aro	-11.6123
▁excess	-11.6124
实惠	-11.6125
▁Commissioner	-11.6126
VER	-11.6126
飘	-11.6127
做法	-11.6127
距	-11.6127
损害	-11.6129
EB	-11.6129
背后	-11.6129
▁breakfast	-11.613
突	-11.613
湘	-11.6131
实现了	-11.6133
▁审判员	-11.6134
密码	-11.6134
宿	-11.6134
与被告	-11.6136
延长	-11.6137
RU	-11.6138
會	-11.6138
▁promised	-11.6139
也不会	-11.614
▁cooking	-11.6142
面向	-11.6143
▁borrow	-11.6144
對	-11.6145
pound	-11.6145
的关键	-11.6146
▁significance	-11.6146
Cr	-11.6149
Face	-11.615
inning	-11.6153
▁artistic	-11.6154
ux	-11.6154
matrix	-11.6154
▁McG	-11.6155
现在是	-11.6156
▁syndrome	-11.616
RV	-11.6163
其他的	-11.6164
PIN	-11.6164
如果感觉不错的话	-11.6165
不多	-11.6165
Send	-11.6167
出发	-11.6168
到时候	-11.6168
裙	-11.6169
受理	-11.617
公安	-11.617
educated	-11.617
▁Burn	-11.6171
球迷	-11.6171
优质的	-11.6173
的衣服	-11.6173
▁inches	-11.6174
▁reviewed	-11.6175
的专业	-11.6175
弹簧	-11.6177
芬	-11.6177
▁subsequently	-11.6178
ander	-11.6178
谢谢您	-11.6182
▁hardly	-11.6184
channel	-11.6184
▁crystal	-11.6186
▁extraordinary	-11.6186
cad	-11.6186
搭载	-11.6186
▁Letter	-11.6187
各大	-11.6187
help	-11.6188
是个	-11.6189
▁tracking	-11.619
皆	-11.6191
cyto	-11.6192
▁hits	-11.6192
Profile	-11.6193
▁abstract	-11.6194
食用	-11.6195
到您	-11.6197
Gr	-11.6197
assembly	-11.6197
玄	-11.6198
▁Leadership	-11.6198
kov	-11.62
生存	-11.6202
tig	-11.6204
Interface	-11.6205
pk	-11.6208
▁cannabis	-11.6208
pent	-11.621
共计	-11.6212
two	-11.6212
女儿	-11.6212
▁effectiveness	-11.6214
▁accommodation	-11.6215
▁populations	-11.6216
NY	-11.6217
▁mineral	-11.6217
▁joke	-11.6217
逸	-11.6217
▁Sav	-11.6219
push	-11.6221
集体	-11.6221
▁Crime	-11.6221
▁chicken	-11.6222
委托诉讼代理人	-11.6224
reach	-11.6225
▁profits	-11.6225
share	-11.6226
▁integrity	-11.6226
▁nervous	-11.6227
腐蚀	-11.623
并非	-11.623
swap	-11.623
浓	-11.6231
▁Unlike	-11.6231
task	-11.6232
去了	-11.6234
Component	-11.6234
▁literary	-11.6235
▁recruit	-11.6235
律师	-11.6235
引进	-11.6236
▁Sydney	-11.6236
sensor	-11.6239
prec	-11.6239
极大	-11.624
▁horses	-11.6241
将于	-11.6241
▁hired	-11.6243
回复您	-11.6244
▁mountains	-11.6246
▁dominate	-11.6246
▁globe	-11.6248
good	-11.6248
▁bands	-11.6249
think	-11.625
▁sustainability	-11.6251
SQL	-11.6252
跟踪	-11.6252
一支	-11.6254
May	-11.6256
patch	-11.6256
三大	-11.6258
gli	-11.626
ía	-11.6261
pac	-11.6261
协助	-11.6261
撤	-11.6265
books	-11.6266
vac	-11.6267
真的是	-11.6267
男人	-11.6268
SHA	-11.6269
pul	-11.627
receptor	-11.6273
报考	-11.6273
▁simulation	-11.6274
▁bold	-11.6274
▁winners	-11.6275
挖	-11.6275
话题	-11.6278
▁satellite	-11.628
Check	-11.6281
遍	-11.6282
▁disclosure	-11.6282
十三	-11.6282
▁damaged	-11.6283
в	-11.6283
endo	-11.6285
盈利	-11.6286
解除	-11.6286
添	-11.6287
螺丝	-11.6288
▁Sales	-11.6289
▁sudden	-11.6289
▁Moore	-11.6291
hem	-11.6296
强制	-11.6297
▁worried	-11.6299
spi	-11.6302
shot	-11.6307
▁analyst	-11.6307
飞机	-11.6312
▁Morgan	-11.6313
▁legs	-11.6317
▁membrane	-11.6317
▁wanting	-11.6317
人口	-11.6317
我也	-11.6318
rah	-11.6318
▁hypo	-11.6319
▁telephone	-11.6319
阶	-11.6322
▁Bear	-11.6324
▁Dia	-11.6324
▁captain	-11.6325
▁Sar	-11.6326
单笔订单	-11.6326
▁CBD	-11.6327
Pack	-11.6327
anda	-11.6328
走进	-11.6329
▁Dead	-11.6329
▁differently	-11.6332
▁Trail	-11.6333
支持在外追求梦想的年轻人	-11.6335
LR	-11.6335
tant	-11.6335
height	-11.6335
><	-11.6336
催下	-11.6337
决赛	-11.6339
法定代表人	-11.6339
起球	-11.634
▁Never	-11.634
外部	-11.634
一层	-11.6341
时光	-11.6344
真正的	-11.6345
Hash	-11.6346
dimension	-11.6347
▁tribe	-11.6347
▁cyber	-11.6347
▁critic	-11.6349
▁cease	-11.6349
尺	-11.635
)^	-11.6351
ologists	-11.6351
验收	-11.6353
Module	-11.6354
均为	-11.6357
sar	-11.6357
福建省	-11.6358
eller	-11.636
▁wireless	-11.6362
耽误您几秒钟	-11.6363
nice	-11.6363
RY	-11.6365
▁drain	-11.6365
滋	-11.6365
逼	-11.6367
minute	-11.6369
iving	-11.637
招标	-11.6371
有多	-11.6371
▁Cra	-11.6374
Next	-11.6375
nest	-11.6375
wp	-11.6375
▁squad	-11.6376
▁wider	-11.6377
▁Wolf	-11.6378
敢	-11.6379
季节	-11.6379
shake	-11.6379
▁Production	-11.6379
WIN	-11.6379
cancel	-11.638
register	-11.6384
非常的	-11.6384
▁Dean	-11.6384
sexual	-11.6386
的活动	-11.6386
apache	-11.6388
▁Sara	-11.6389
换购	-11.639
▁Luke	-11.6391
生效	-11.6393
mouth	-11.6395
stan	-11.6396
▁renewable	-11.6396
Dev	-11.6398
▁glory	-11.64
响应	-11.6401
▁odds	-11.6402
▁twist	-11.6403
▁Within	-11.6405
iso	-11.6406
若是	-11.6406
采用了	-11.6406
nit	-11.6407
▁continent	-11.6407
溢	-11.6408
▁rejected	-11.6409
▁companion	-11.6412
▁Rick	-11.6415
瞬间	-11.6415
product	-11.6416
醇	-11.6417
你好	-11.6418
due	-11.6418
▁Companies	-11.6419
三分	-11.642
的形式	-11.6423
▁deck	-11.6424
steroid	-11.6425
全新的	-11.6426
▁instant	-11.6427
Star	-11.6427
的优势	-11.6429
TL	-11.6429
▁speaks	-11.643
甘肃	-11.6432
▁Course	-11.6433
Install	-11.6433
厂商	-11.6435
个性	-11.6437
▁Oklahoma	-11.6438
教练	-11.6438
subscribe	-11.644
▁workforce	-11.6441
我说	-11.6443
▁surrounded	-11.6444
大力	-11.6444
camp	-11.6446
诈骗	-11.6447
ova	-11.6447
▁cre	-11.6448
▁Champion	-11.645
▁Poland	-11.6453
Filter	-11.6455
消除	-11.6455
不客气呢	-11.6463
去除	-11.6463
气温	-11.6464
鼎	-11.6465
高达	-11.6466
▁enormous	-11.6467
▁graphics	-11.6467
▁themes	-11.6468
rup	-11.6469
贺	-11.647
diff	-11.647
kel	-11.647
▁Covid	-11.6471
影视	-11.6472
▁resist	-11.6472
▁Schools	-11.6474
CALL	-11.6474
▁rein	-11.6478
电磁	-11.6478
window	-11.648
▁Mis	-11.648
加热坐垫	-11.6482
▁acceptance	-11.6482
龙头	-11.6483
▁Spi	-11.6485
▁equality	-11.6487
▁compromise	-11.6488
profile	-11.6489
▁Shop	-11.649
▁historian	-11.6492
法国	-11.6492
们的	-11.6493
have	-11.6495
优点	-11.6495
前面	-11.6498
VS	-11.6499
layer	-11.6499
▁consistently	-11.6501
篮球	-11.6504
XXX	-11.6504
每月	-11.6504
▁detected	-11.6505
饮	-11.6506
精华	-11.6506
绘	-11.6506
án	-11.6507
Controller	-11.6508
▁implications	-11.6508
代码	-11.6508
▁begun	-11.6508
▁technological	-11.6509
不清楚	-11.6511
▁adjustment	-11.6512
REF	-11.6512
anti	-11.6512
应该是	-11.6513
▁puts	-11.6516
》《	-11.6517
▁sizes	-11.6517
▁Hawaii	-11.6517
▁Hart	-11.6518
Token	-11.6518
研究生	-11.652
都是有	-11.652
emia	-11.652
▁references	-11.6522
▁Gas	-11.6522
新车	-11.6522
▁charity	-11.6523
iPhone	-11.6523
设立	-11.6524
伙	-11.6525
▁Fun	-11.6525
▁undergraduate	-11.6527
▁Mississippi	-11.6529
Thread	-11.6529
好好	-11.6531
handed	-11.6532
uro	-11.6533
▁laugh	-11.6534
RP	-11.6535
▁fought	-11.6535
是最	-11.6537
chan	-11.6538
▁utilize	-11.6538
生产的	-11.6541
▁habits	-11.6543
忍	-11.6544
较高	-11.6545
强大	-11.6545
▁spa	-11.6548
ito	-11.6549
▁Rich	-11.6551
活力	-11.6551
ache	-11.6551
戒	-11.6552
▁composer	-11.6553
Schedule	-11.6553
chrom	-11.6554
我家	-11.6555
随时联系我们	-11.6556
chat	-11.6556
▁Albert	-11.6558
個	-11.6559
主场	-11.6559
android	-11.656
park	-11.656
▁Round	-11.656
▁Federation	-11.6561
NOT	-11.6564
职位	-11.6567
dense	-11.6569
Safe	-11.6569
▁Spe	-11.657
器的	-11.6572
▁corporation	-11.6572
▁Bol	-11.6572
dash	-11.6572
扶	-11.6572
▁favour	-11.6573
dst	-11.6574
▁twelve	-11.6576
比较好	-11.6577
远程	-11.6577
▁Reserve	-11.6578
破坏	-11.6579
▁inspire	-11.6587
Ang	-11.6588
▁promoted	-11.6588
誉	-11.6588
wd	-11.6589
translate	-11.659
▁Hence	-11.659
▁pig	-11.6591
学术	-11.6591
anne	-11.6591
仪式	-11.6591
一片	-11.6592
投诉	-11.6592
▁optimal	-11.6592
一段	-11.6593
▁mystery	-11.6594
的品牌	-11.6597
一样的	-11.6597
userId	-11.6599
▁Sel	-11.6599
▁Greece	-11.6601
▁expanding	-11.6604
nate	-11.6604
智能化	-11.6606
ERS	-11.6609
熔	-11.6609
▁Greg	-11.661
阵容	-11.661
▁Dor	-11.6612
▁alien	-11.6613
▁Survey	-11.6614
▁Alliance	-11.6615
俄罗斯	-11.6616
申请人	-11.6618
▁iPad	-11.6618
▁Sco	-11.6618
ARG	-11.6619
显著	-11.662
这个问题	-11.6621
非常好	-11.6621
年代	-11.6622
一块	-11.6624
一体化	-11.6625
看了	-11.6625
Control	-11.6626
一一	-11.6627
有任何	-11.6628
▁amongst	-11.6631
▁buried	-11.6632
Settings	-11.6632
了吧	-11.6633
dog	-11.6634
舞台	-11.6635
直到	-11.6635
hap	-11.6636
▁Entertainment	-11.6636
Now	-11.6637
▁inspection	-11.6637
▁paintings	-11.6638
多了	-11.6639
这类	-11.664
收购	-11.664
▁temperatures	-11.6642
MBA	-11.6642
gray	-11.6643
成型	-11.6645
印度	-11.6646
/:)-(	-11.6646
很大的	-11.6648
發	-11.6648
陶瓷	-11.6648
aut	-11.665
推荐您购买	-11.665
棋	-11.6657
▁Moscow	-11.6657
指挥	-11.666
norm	-11.6662
element	-11.6663
Build	-11.6666
的事	-11.6666
的学习	-11.6668
bru	-11.6668
投标	-11.667
▁Overall	-11.6671
▁Utah	-11.6671
▁Images	-11.6673
tweet	-11.6674
bullet	-11.6674
hline	-11.6676
Sha	-11.6676
癫痫病	-11.6677
El	-11.6677
第六	-11.6679
chemistry	-11.668
符	-11.668
unlock	-11.6681
造成的	-11.6682
感谢您对	-11.6683
Category	-11.6683
的基础上	-11.6686
â	-11.6686
filter	-11.6686
▁workshop	-11.6687
我帮您	-11.6688
▁streaming	-11.669
第一款	-11.6691
ffe	-11.6692
广州市	-11.6692
▁determining	-11.6693
传动	-11.6693
手表	-11.6693
炮	-11.6693
听到	-11.6694
▁discretion	-11.6694
uma	-11.6694
每个人	-11.6695
▁pursuant	-11.6696
boot	-11.6699
▁peaceful	-11.67
▁passes	-11.6701
两侧	-11.6701
▁acute	-11.6702
搭建	-11.6702
▁shame	-11.6703
▁keys	-11.6704
▁Islands	-11.6704
▁printing	-11.6707
Library	-11.6708
held	-11.6708
▁Cape	-11.6711
有什么可以帮您的呢	-11.6712
稳定性	-11.6713
美术	-11.6713
中华	-11.6713
▁Fed	-11.6714
滑动	-11.6717
送到	-11.6719
lac	-11.6719
▁weird	-11.672
▁Clar	-11.672
PV	-11.6721
▁ranging	-11.6722
后再	-11.6723
中通快递	-11.6723
辞	-11.6724
HU	-11.6724
bling	-11.6725
▁vocal	-11.6726
主人	-11.6726
渣	-11.6726
政治	-11.6727
Mon	-11.6728
▁angry	-11.6728
▁towns	-11.6733
includegraphics	-11.6734
homo	-11.6734
▁regarded	-11.6735
▁statute	-11.6736
thesis	-11.6737
▁plaintiff	-11.6739
soft	-11.6739
▁Philippines	-11.674
ides	-11.6742
内存	-11.6743
▁Treatment	-11.6743
湖南省	-11.6745
竞赛	-11.6745
green	-11.6745
董事长	-11.6747
driver	-11.6748
模特	-11.6749
郑州	-11.675
雕	-11.675
GEN	-11.6751
形状	-11.6753
茂	-11.6756
▁cognitive	-11.6757
▁waves	-11.6757
玩具	-11.6761
▁suggestions	-11.6761
云南	-11.6762
來	-11.6764
▁proteins	-11.6764
bridge	-11.6765
电梯	-11.6768
优选	-11.6768
rise	-11.6769
▁styles	-11.677
学生的	-11.677
练习	-11.6774
multi	-11.6777
▁Susan	-11.6779
胎	-11.6781
aligned	-11.6782
Label	-11.6782
sizeof	-11.6783
锻炼	-11.6783
不如	-11.6784
********","	-11.6786
是很	-11.6786
土壤	-11.6788
iling	-11.6789
有可能	-11.6789
▁administrator	-11.679
mine	-11.6791
▁robust	-11.6794
▁unlike	-11.6795
▁Arabia	-11.6795
TU	-11.6796
的生产	-11.6798
衬	-11.6799
▁legally	-11.6799
厦门	-11.6801
Prob	-11.6802
巷	-11.6803
耀	-11.6804
▁quantum	-11.6806
urn	-11.6807
NEW	-11.6807
▁blessing	-11.6807
悬	-11.6808
可以随时	-11.6809
science	-11.681
▁Race	-11.6813
收取	-11.6814
▁shade	-11.6814
▁Mas	-11.6815
serial	-11.6817
<<	-11.6818
很重要	-11.682
调研	-11.682
告诉我	-11.6821
▁defeated	-11.6829
Success	-11.6829
▁submission	-11.6829
参观	-11.683
园区	-11.6833
▁Sweden	-11.6834
berry	-11.6834
勾	-11.6836
看好	-11.6836
▁Made	-11.6836
彭	-11.6837
▁annually	-11.6837
▁dramatic	-11.6838
诸	-11.6838
▁checked	-11.6839
▁Express	-11.684
一段时间	-11.684
▁highlights	-11.6841
坊	-11.6841
这就是	-11.6842
trop	-11.6843
▁Along	-11.6843
袭	-11.6845
▁pioneer	-11.6848
Matrix	-11.6849
挖掘	-11.685
▁heading	-11.6851
前景	-11.6851
村民	-11.6852
▁Bus	-11.6853
NR	-11.6854
同比增长	-11.6855
▁Risk	-11.6856
cup	-11.6857
▁bonds	-11.6859
▁heal	-11.686
vocation	-11.686
small	-11.6862
将其	-11.6864
翔	-11.6865
stead	-11.6866
邓	-11.6867
▁fatal	-11.6867
崇	-11.6868
蓝牙	-11.6872
好评链接	-11.6872
}_{\	-11.6872
');	-11.6873
effective	-11.6873
augh	-11.6873
very	-11.6873
}}\	-11.6875
chin	-11.6876
EMS	-11.6876
coding	-11.6876
▁ecosystem	-11.6876
接到	-11.6878
OO	-11.6878
▁NG	-11.688
碱	-11.6883
PB	-11.6883
Basic	-11.6886
亮点	-11.6886
▁Sure	-11.6886
湖北省	-11.6887
zone	-11.6888
能否	-11.6891
▁lover	-11.6891
tp	-11.6891
Gen	-11.6892
的故事	-11.6892
▁desk	-11.6892
▁Nation	-11.6893
▁enjoying	-11.6893
rhythm	-11.6893
▁slip	-11.6894
TION	-11.6895
▁agriculture	-11.6897
visible	-11.6899
▁Arthur	-11.6899
compute	-11.6901
赔	-11.6901
rug	-11.6902
联系方式	-11.6902
生活的	-11.6902
▁crush	-11.6904
▁faithful	-11.6904
帮忙评价一下下	-11.6904
SPI	-11.6905
tell	-11.6907
淋	-11.6907
urgent	-11.6907
出租	-11.6908
▁operators	-11.6909
TRUE	-11.6911
▁您的宝贝由百世快递发出	-11.6912
▁discharge	-11.6913
quin	-11.6913
module	-11.6914
uz	-11.6914
夫妻	-11.6914
▁treasure	-11.6915
▁tourism	-11.6915
▁welfare	-11.6916
毁	-11.6918
百搭	-11.6918
我是客服	-11.6918
CFG	-11.6921
▁Howard	-11.6921
导航	-11.6922
boldsymbol	-11.6923
▁Appeal	-11.6924
车间	-11.6925
emit	-11.6926
See	-11.6927
扑	-11.6927
±	-11.6928
拳	-11.6929
违	-11.693
▁whilst	-11.693
ELL	-11.6931
▁fallen	-11.6932
they	-11.6933
▁developer	-11.6934
新能源	-11.6934
顾问	-11.6935
human	-11.6936
划算	-11.6936
▁flexibility	-11.6936
可在	-11.6938
▁analog	-11.6938
▁Castle	-11.6939
Driver	-11.6939
▁Ros	-11.6942
锅炉	-11.6943
▁Gospel	-11.6944
这款商品	-11.6945
▁Hunt	-11.6951
卓	-11.6951
cpp	-11.6951
大于	-11.6953
CONFIG	-11.6954
UND	-11.6955
炸	-11.6955
▁Making	-11.6955
增加了	-11.6956
▁Lawyer	-11.6957
▁Taiwan	-11.6957
▁steam	-11.6957
Magic	-11.6959
there	-11.6959
▁Better	-11.6959
▁您的留言	-11.696
▁cry	-11.6961
▁Works	-11.6961
pay	-11.6961
▁Mau	-11.6961
▁maps	-11.6963
提高了	-11.6964
eli	-11.6964
之下	-11.6964
▁Sale	-11.6965
帮你	-11.6966
▁Christianity	-11.6967
NUM	-11.6967
女生	-11.6967
&\	-11.6968
加厚	-11.6969
▁<=	-11.6969
获得了	-11.6971
EQ	-11.6972
▁painful	-11.6972
[\	-11.6973
BASE	-11.6974
tex	-11.6975
▁Mah	-11.6976
▁substitute	-11.6976
keeper	-11.6976
timer	-11.6976
担任	-11.6976
▁intra	-11.6976
▁creativity	-11.6979
海洋	-11.6979
给了	-11.6979
socket	-11.6981
▁Historical	-11.6982
stage	-11.6982
▁Side	-11.6983
quo	-11.6983
chant	-11.6983
▁settle	-11.6984
viral	-11.6984
男子	-11.6984
中文	-11.6986
diag	-11.6988
▁asks	-11.6989
▁boundaries	-11.6989
看您	-11.699
Movie	-11.6994
福建	-11.6995
▁casinos	-11.6996
冯	-11.6996
LU	-11.6999
▁twin	-11.7
▁correlation	-11.7001
参赛	-11.7004
凸	-11.7005
口味	-11.7006
uda	-11.7006
▁campaigns	-11.7009
▁importantly	-11.701
培	-11.701
会上	-11.7011
▁Fight	-11.7011
▁bacteria	-11.7012
秋季	-11.7013
regulated	-11.7013
▁incorporate	-11.7014
pause	-11.7014
▁Too	-11.7015
▁Pot	-11.7016
claim	-11.7017
任选	-11.7019
队的	-11.702
CHAR	-11.7021
▁contrary	-11.7021
▁Detroit	-11.7023
▁mild	-11.7023
第三方	-11.7024
▁"\	-11.7024
Pol	-11.7025
▁finger	-11.7026
这也	-11.7026
缴纳	-11.7027
济南	-11.7028
▁Emma	-11.7029
▁Mur	-11.7032
VP	-11.7033
▁eastern	-11.7034
Local	-11.7034
activation	-11.7035
就算	-11.7036
万人	-11.7036
▁classification	-11.7036
纸条	-11.7037
Position	-11.7038
▁tables	-11.704
ITE	-11.7041
尤其	-11.7043
核对	-11.7043
▁shortly	-11.7045
▁mechanical	-11.7045
好处	-11.7046
MG	-11.7048
▁Innovation	-11.7048
思路	-11.7049
▁followers	-11.705
▁fails	-11.7052
排水	-11.7053
迟	-11.7053
▁McK	-11.7053
的基本	-11.7054
而成	-11.7055
赠	-11.7055
闹	-11.7055
treat	-11.7056
▁tremendous	-11.7058
clo	-11.7058
据悉	-11.7061
深刻	-11.7061
instance	-11.7062
dh	-11.7062
发邮政	-11.7064
▁lighting	-11.7066
▁Heritage	-11.7066
▁Performance	-11.7068
▁productivity	-11.7068
放心购买	-11.707
built	-11.707
一键	-11.7071
trim	-11.7071
vivo	-11.7072
Rate	-11.7073
▁offensive	-11.7076
fore	-11.7076
rive	-11.7077
▁navigate	-11.7077
都很	-11.7077
nz	-11.7078
成人	-11.7078
▁railway	-11.7079
▁gonna	-11.708
提取	-11.708
世界杯	-11.7081
动画	-11.7082
停车	-11.7082
想到	-11.7085
Occ	-11.7086
ogen	-11.7087
▁soccer	-11.7088
▁politician	-11.7088
▁Vin	-11.7089
aria	-11.7089
▁manifest	-11.709
▁cuts	-11.7091
▁smartphone	-11.7091
[...]
